{
  "version": "1.0",
  "truncation": null,
  "padding": null,
  "added_tokens": [
    {
      "id": 0,
      "content": "[UNK]",
      "single_word": false,
      "lstrip": false,
      "rstrip": false,
      "normalized": false,
      "special": true
    },
    {
      "id": 1,
      "content": "[CLS]",
      "single_word": false,
      "lstrip": false,
      "rstrip": false,
      "normalized": false,
      "special": true
    },
    {
      "id": 2,
      "content": "[SEP]",
      "single_word": false,
      "lstrip": false,
      "rstrip": false,
      "normalized": false,
      "special": true
    },
    {
      "id": 3,
      "content": "[PAD]",
      "single_word": false,
      "lstrip": false,
      "rstrip": false,
      "normalized": false,
      "special": true
    },
    {
      "id": 4,
      "content": "[MASK]",
      "single_word": false,
      "lstrip": false,
      "rstrip": false,
      "normalized": false,
      "special": true
    }
  ],
  "normalizer": null,
  "pre_tokenizer": {
    "type": "Whitespace"
  },
  "post_processor": null,
  "decoder": null,
  "model": {
    "type": "BPE",
    "dropout": null,
    "unk_token": "[UNK]",
    "continuing_subword_prefix": null,
    "end_of_word_suffix": null,
    "fuse_unk": false,
    "byte_fallback": false,
    "ignore_merges": false,
    "vocab": {
      "[UNK]": 0,
      "[CLS]": 1,
      "[SEP]": 2,
      "[PAD]": 3,
      "[MASK]": 4,
      "!": 5,
      "\"": 6,
      "#": 7,
      "$": 8,
      "%": 9,
      "&": 10,
      "'": 11,
      "(": 12,
      ")": 13,
      "*": 14,
      "+": 15,
      ",": 16,
      "-": 17,
      ".": 18,
      "/": 19,
      "0": 20,
      "1": 21,
      "2": 22,
      "3": 23,
      "4": 24,
      "5": 25,
      "6": 26,
      "7": 27,
      "8": 28,
      "9": 29,
      ":": 30,
      ";": 31,
      "<": 32,
      "=": 33,
      ">": 34,
      "?": 35,
      "@": 36,
      "A": 37,
      "B": 38,
      "C": 39,
      "D": 40,
      "E": 41,
      "F": 42,
      "G": 43,
      "H": 44,
      "I": 45,
      "J": 46,
      "K": 47,
      "L": 48,
      "M": 49,
      "N": 50,
      "O": 51,
      "P": 52,
      "Q": 53,
      "R": 54,
      "S": 55,
      "T": 56,
      "U": 57,
      "V": 58,
      "W": 59,
      "X": 60,
      "Y": 61,
      "Z": 62,
      "[": 63,
      "\\": 64,
      "]": 65,
      "^": 66,
      "_": 67,
      "`": 68,
      "a": 69,
      "b": 70,
      "c": 71,
      "d": 72,
      "e": 73,
      "f": 74,
      "g": 75,
      "h": 76,
      "i": 77,
      "j": 78,
      "k": 79,
      "l": 80,
      "m": 81,
      "n": 82,
      "o": 83,
      "p": 84,
      "q": 85,
      "r": 86,
      "s": 87,
      "t": 88,
      "u": 89,
      "v": 90,
      "w": 91,
      "x": 92,
      "y": 93,
      "z": 94,
      "{": 95,
      "|": 96,
      "}": 97,
      "~": 98,
      "§": 99,
      "¨": 100,
      "«": 101,
      "­": 102,
      "°": 103,
      "²": 104,
      "´": 105,
      "·": 106,
      "»": 107,
      "À": 108,
      "É": 109,
      "Ñ": 110,
      "Ó": 111,
      "×": 112,
      "Ü": 113,
      "à": 114,
      "á": 115,
      "â": 116,
      "ä": 117,
      "ç": 118,
      "è": 119,
      "é": 120,
      "ê": 121,
      "ë": 122,
      "í": 123,
      "ò": 124,
      "ó": 125,
      "ô": 126,
      "ö": 127,
      "ú": 128,
      "û": 129,
      "ü": 130,
      "ý": 131,
      "Ą": 132,
      "ą": 133,
      "Ć": 134,
      "ć": 135,
      "Č": 136,
      "č": 137,
      "Ę": 138,
      "ę": 139,
      "ě": 140,
      "Ł": 141,
      "ł": 142,
      "Ń": 143,
      "ń": 144,
      "ō": 145,
      "ő": 146,
      "ŕ": 147,
      "ř": 148,
      "Ś": 149,
      "ś": 150,
      "š": 151,
      "Ţ": 152,
      "ţ": 153,
      "Ź": 154,
      "ź": 155,
      "Ż": 156,
      "ż": 157,
      "˝": 158,
      "–": 159,
      "—": 160,
      "‘": 161,
      "’": 162,
      "“": 163,
      "”": 164,
      "„": 165,
      "•": 166,
      "…": 167,
      "−": 168,
      "ie": 169,
      "rz": 170,
      "nie": 171,
      "na": 172,
      "cz": 173,
      "ch": 174,
      "sz": 175,
      "po": 176,
      "st": 177,
      "ni": 178,
      "ał": 179,
      "dz": 180,
      "ię": 181,
      "ra": 182,
      "ow": 183,
      "ro": 184,
      "rze": 185,
      "li": 186,
      "je": 187,
      "go": 188,
      "za": 189,
      "się": 190,
      "ko": 191,
      "ci": 192,
      "le": 193,
      "do": 194,
      "mi": 195,
      "ka": 196,
      "wi": 197,
      "ta": 198,
      "by": 199,
      "ki": 200,
      "rzy": 201,
      "ny": 202,
      "ła": 203,
      "te": 204,
      "że": 205,
      "wa": 206,
      "ja": 207,
      "pa": 208,
      "wy": 209,
      "ne": 210,
      "ło": 211,
      "to": 212,
      "ty": 213,
      "wie": 214,
      "ów": 215,
      "wo": 216,
      "dzi": 217,
      "da": 218,
      "no": 219,
      "czy": 220,
      "dzie": 221,
      "la": 222,
      "ry": 223,
      "prze": 224,
      "ma": 225,
      "re": 226,
      "kie": 227,
      "od": 228,
      "cie": 229,
      "dy": 230,
      "ją": 231,
      "mo": 232,
      "ce": 233,
      "ku": 234,
      "szy": 235,
      "sta": 236,
      "em": 237,
      "mie": 238,
      "cze": 239,
      "si": 240,
      "kt": 241,
      "ob": 242,
      "ści": 243,
      "przy": 244,
      "cy": 245,
      "owa": 246,
      "nia": 247,
      "mu": 248,
      "my": 249,
      "ru": 250,
      "ną": 251,
      "któ": 252,
      "ły": 253,
      "sze": 254,
      "ba": 255,
      "bo": 256,
      "ała": 257,
      "sa": 258,
      "pie": 259,
      "tu": 260,
      "we": 261,
      "cza": 262,
      "co": 263,
      "bi": 264,
      "lu": 265,
      "pra": 266,
      "ży": 267,
      "ga": 268,
      "pi": 269,
      "raz": 270,
      "roz": 271,
      "łu": 272,
      "jak": 273,
      "de": 274,
      "ró": 275,
      "ski": 276,
      "ść": 277,
      "ze": 278,
      "ca": 279,
      "ju": 280,
      "wia": 281,
      "spo": 282,
      "wszy": 283,
      "jest": 284,
      "cho": 285,
      "bie": 286,
      "nych": 287,
      "tak": 288,
      "sza": 289,
      "zna": 290,
      "ale": 291,
      "pod": 292,
      "gi": 293,
      "pe": 294,
      "rę": 295,
      "ały": 296,
      "owie": 297,
      "du": 298,
      "owi": 299,
      "skie": 300,
      "sk": 301,
      "pan": 302,
      "wię": 303,
      "sie": 304,
      "Po": 305,
      "gł": 306,
      "mó": 307,
      "Nie": 308,
      "niej": 309,
      "sto": 310,
      "owy": 311,
      "zy": 312,
      "in": 313,
      "ało": 314,
      "cha": 315,
      "me": 316,
      "pro": 317,
      "nę": 318,
      "be": 319,
      "pu": 320,
      "sy": 321,
      "nym": 322,
      "lo": 323,
      "ję": 324,
      "Na": 325,
      "który": 326,
      "owe": 327,
      "su": 328,
      "ar": 329,
      "nej": 330,
      "ska": 331,
      "se": 332,
      "już": 333,
      "gdy": 334,
      "szcze": 335,
      "jed": 336,
      "czę": 337,
      "an": 338,
      "nego": 339,
      "Za": 340,
      "bę": 341,
      "kł": 342,
      "powie": 343,
      "jąc": 344,
      "on": 345,
      "tym": 346,
      "mnie": 347,
      "or": 348,
      "sob": 349,
      "lko": 350,
      "ich": 351,
      "bu": 352,
      "Ja": 353,
      "ji": 354,
      "fi": 355,
      "gło": 356,
      "py": 357,
      "jej": 358,
      "ża": 359,
      "niu": 360,
      "jego": 361,
      "które": 362,
      "dla": 363,
      "tego": 364,
      "ków": 365,
      "wał": 366,
      "czą": 367,
      "sią": 368,
      "nął": 369,
      "naj": 370,
      "dział": 371,
      "ąd": 372,
      "myś": 373,
      "mówi": 374,
      "..": 375,
      "przed": 376,
      "był": 377,
      "rzekł": 378,
      "Je": 379,
      "tylko": 380,
      "pó": 381,
      "wszyst": 382,
      "przez": 383,
      "ście": 384,
      "dob": 385,
      "nic": 386,
      "rza": 387,
      "rą": 388,
      "mię": 389,
      "tem": 390,
      "trzy": 391,
      "było": 392,
      "og": 393,
      "wz": 394,
      "sty": 395,
      "czas": 396,
      "praw": 397,
      "dł": 398,
      "kę": 399,
      "czo": 400,
      "wła": 401,
      "słu": 402,
      "rów": 403,
      "mia": 404,
      "jeszcze": 405,
      "sł": 406,
      "cu": 407,
      "cji": 408,
      "trze": 409,
      "Ch": 410,
      "cia": 411,
      "al": 412,
      "zo": 413,
      "sko": 414,
      "tam": 415,
      "lę": 416,
      "nu": 417,
      "tej": 418,
      "sła": 419,
      "bra": 420,
      "nt": 421,
      "bez": 422,
      "kiem": 423,
      "może": 424,
      "Wo": 425,
      "zie": 426,
      "Ta": 427,
      "żo": 428,
      "ąc": 429,
      "zu": 430,
      "nad": 431,
      "ok": 432,
      "cią": 433,
      "tę": 434,
      "są": 435,
      "dze": 436,
      "ką": 437,
      "kła": 438,
      "bli": 439,
      "im": 440,
      "pier": 441,
      "ności": 442,
      "będzie": 443,
      "Ale": 444,
      "ten": 445,
      "dzo": 446,
      "To": 447,
      "bar": 448,
      "wó": 449,
      "nim": 450,
      "cię": 451,
      "tych": 452,
      "tra": 453,
      "dę": 454,
      "stra": 455,
      "nio": 456,
      "chwi": 457,
      "sobie": 458,
      "niem": 459,
      "kich": 460,
      "śli": 461,
      "twa": 462,
      "zd": 463,
      "sia": 464,
      "skiego": 465,
      "dzy": 466,
      "czu": 467,
      "rowa": 468,
      "wsze": 469,
      "pła": 470,
      "gie": 471,
      "cał": 472,
      "kim": 473,
      "ste": 474,
      "ował": 475,
      "stę": 476,
      "chy": 477,
      "Ma": 478,
      "Bo": 479,
      "wiel": 480,
      "gu": 481,
      "miał": 482,
      "zi": 483,
      "też": 484,
      "ona": 485,
      "śmie": 486,
      "!…": 487,
      "stro": 488,
      "ri": 489,
      "swo": 490,
      "rzu": 491,
      "wać": 492,
      "jako": 493,
      "świa": 494,
      "so": 495,
      "wet": 496,
      "Pa": 497,
      "two": 498,
      "nią": 499,
      "cja": 500,
      "jedna": 501,
      "tał": 502,
      "łe": 503,
      "kró": 504,
      "Wi": 505,
      "śnie": 506,
      "jący": 507,
      "wią": 508,
      "gra": 509,
      "wró": 510,
      "woj": 511,
      "chodzi": 512,
      "nik": 513,
      "par": 514,
      "więc": 515,
      "dro": 516,
      "owo": 517,
      "dą": 518,
      "tro": 519,
      "kto": 520,
      "cił": 521,
      "dru": 522,
      "zaś": 523,
      "kra": 524,
      "ować": 525,
      "gó": 526,
      "peł": 527,
      "nię": 528,
      "rzą": 529,
      "fa": 530,
      "nawet": 531,
      "gę": 532,
      "być": 533,
      "ność": 534,
      "dni": 535,
      "pię": 536,
      "Le": 537,
      "dłu": 538,
      "myśl": 539,
      "pew": 540,
      "dać": 541,
      "gro": 542,
      "żę": 543,
      "kon": 544,
      "stu": 545,
      "kiego": 546,
      "sły": 547,
      "wą": 548,
      "ńst": 549,
      "den": 550,
      "Sta": 551,
      "lski": 552,
      "ksią": 553,
      "cznie": 554,
      "krzy": 555,
      "Ka": 556,
      "pad": 557,
      "oczy": 558,
      "sam": 559,
      "dza": 560,
      "?…": 561,
      "owych": 562,
      "resz": 563,
      "daw": 564,
      "śmy": 565,
      "mę": 566,
      "jednak": 567,
      "tą": 568,
      "łem": 569,
      "sku": 570,
      "Ko": 571,
      "Do": 572,
      "strze": 573,
      "robi": 574,
      "owej": 575,
      "Prze": 576,
      "ej": 577,
      "cej": 578,
      "gdzie": 579,
      "lą": 580,
      "szą": 581,
      "bym": 582,
      "Ra": 583,
      "er": 584,
      "kil": 585,
      "lub": 586,
      "była": 587,
      "pow": 588,
      "ser": 589,
      "Ty": 590,
      "prowa": 591,
      "dał": 592,
      "zło": 593,
      "dź": 594,
      "skiej": 595,
      "war": 596,
      "kaz": 597,
      "nich": 598,
      "lej": 599,
      "nów": 600,
      "teraz": 601,
      "rzę": 602,
      "stał": 603,
      "szczę": 604,
      "moż": 605,
      "Te": 606,
      "owski": 607,
      "Co": 608,
      "ha": 609,
      "chci": 610,
      "Wy": 611,
      "mar": 612,
      "ców": 613,
      "Mo": 614,
      "Ro": 615,
      "szę": 616,
      "koń": 617,
      "ową": 618,
      "chu": 619,
      "świe": 620,
      "łowie": 621,
      "szu": 622,
      "Sz": 623,
      "każ": 624,
      "szedł": 625,
      "Mi": 626,
      "bro": 627,
      "niego": 628,
      "mog": 629,
      "szka": 630,
      "sło": 631,
      "począ": 632,
      "miej": 633,
      "ciąg": 634,
      "czym": 635,
      "dzą": 636,
      "tru": 637,
      "bardzo": 638,
      "nas": 639,
      "pół": 640,
      "wol": 641,
      "odpowie": 642,
      "towa": 643,
      "pana": 644,
      "żeby": 645,
      "pani": 646,
      "mło": 647,
      "Ju": 648,
      "men": 649,
      "nika": 650,
      "kiej": 651,
      "róż": 652,
      "kro": 653,
      "czył": 654,
      "kry": 655,
      "pre": 656,
      "ran": 657,
      "scy": 658,
      "Pan": 659,
      "Czy": 660,
      "między": 661,
      "łą": 662,
      "ałem": 663,
      "księ": 664,
      "nem": 665,
      "czego": 666,
      "aby": 667,
      "di": 668,
      "oj": 669,
      "tów": 670,
      "chwili": 671,
      "albo": 672,
      "ół": 673,
      "szko": 674,
      "Wie": 675,
      "stęp": 676,
      "dził": 677,
      "tnie": 678,
      "pły": 679,
      "więk": 680,
      "miejs": 681,
      "zwy": 682,
      "powia": 683,
      "ński": 684,
      "cą": 685,
      "działa": 686,
      "waż": 687,
      "By": 688,
      "ludzi": 689,
      "książę": 690,
      "kiedy": 691,
      "którzy": 692,
      "stan": 693,
      "tr": 694,
      "ani": 695,
      "choć": 696,
      "człowie": 697,
      "rem": 698,
      "tka": 699,
      "których": 700,
      "zosta": 701,
      "um": 702,
      "ścia": 703,
      "Przy": 704,
      "musi": 705,
      "mówił": 706,
      "...": 707,
      "wier": 708,
      "wszystko": 709,
      "spra": 710,
      "oba": 711,
      "ws": 712,
      "stą": 713,
      "Sa": 714,
      "głos": 715,
      "óg": 716,
      "fe": 717,
      "lecz": 718,
      "mniej": 719,
      "chło": 720,
      "for": 721,
      "jakby": 722,
      "Tak": 723,
      "trz": 724,
      "ód": 725,
      "jące": 726,
      "owego": 727,
      "dzia": 728,
      "nymi": 729,
      "zda": 730,
      "kre": 731,
      "usta": 732,
      "żą": 733,
      "mógł": 734,
      "panie": 735,
      "rod": 736,
      "óż": 737,
      "Jak": 738,
      "ter": 739,
      "Li": 740,
      "Tu": 741,
      "przeci": 742,
      "chę": 743,
      "Lecz": 744,
      "gar": 745,
      "wił": 746,
      "wę": 747,
      "Woku": 748,
      "szych": 749,
      "now": 750,
      "mał": 751,
      "nił": 752,
      "umie": 753,
      "niec": 754,
      "dwa": 755,
      "aż": 756,
      "Ba": 757,
      "dnie": 758,
      "ród": 759,
      "czasem": 760,
      "nam": 761,
      "et": 762,
      "owę": 763,
      "tk": 764,
      "kom": 765,
      "ryce": 766,
      "wej": 767,
      "wali": 768,
      "nąć": 769,
      "kar": 770,
      "ścią": 771,
      "poli": 772,
      "chod": 773,
      "podob": 774,
      "pytał": 775,
      "wio": 776,
      "ój": 777,
      "chał": 778,
      "nić": 779,
      "zaraz": 780,
      "osta": 781,
      "gnie": 782,
      "stwo": 783,
      "niż": 784,
      "Zagło": 785,
      "szla": 786,
      "ciu": 787,
      "przyja": 788,
      "która": 789,
      "więcej": 790,
      "ge": 791,
      "żył": 792,
      "czne": 793,
      "miast": 794,
      "zawo": 795,
      "pę": 796,
      "wu": 797,
      "dzieć": 798,
      "drze": 799,
      "kach": 800,
      "uczy": 801,
      "śmier": 802,
      "zmie": 803,
      "poczę": 804,
      "uro": 805,
      "dziej": 806,
      "Gdy": 807,
      "siebie": 808,
      "cę": 809,
      "żeli": 810,
      "szej": 811,
      "chce": 812,
      "znaj": 813,
      "br": 814,
      "łnie": 815,
      "tek": 816,
      "szcza": 817,
      "lat": 818,
      "dzić": 819,
      "roku": 820,
      "nęła": 821,
      "nicy": 822,
      "także": 823,
      "poko": 824,
      "moc": 825,
      "samo": 826,
      "kilka": 827,
      "Ni": 828,
      "sił": 829,
      "cję": 830,
      "można": 831,
      "coś": 832,
      "przeciw": 833,
      "dnia": 834,
      "ciem": 835,
      "szo": 836,
      "tar": 837,
      "ór": 838,
      "czyć": 839,
      "były": 840,
      "owym": 841,
      "Od": 842,
      "liśmy": 843,
      "rzał": 844,
      "gą": 845,
      "jaki": 846,
      "którym": 847,
      "nek": 848,
      "potem": 849,
      "jem": 850,
      "eś": 851,
      "kami": 852,
      "hu": 853,
      "mil": 854,
      "począł": 855,
      "owiem": 856,
      "gru": 857,
      "mów": 858,
      "włas": 859,
      "dwie": 860,
      "ników": 861,
      "nami": 862,
      "cały": 863,
      "raj": 864,
      "nale": 865,
      "której": 866,
      "chać": 867,
      "trzyma": 868,
      "oko": 869,
      "wra": 870,
      "poz": 871,
      "dar": 872,
      "gle": 873,
      "ób": 874,
      "pyta": 875,
      "reszcie": 876,
      "domu": 877,
      "krze": 878,
      "miło": 879,
      "jeden": 880,
      "wała": 881,
      "łody": 882,
      "żołnie": 883,
      "star": 884,
      "Kmi": 885,
      "godzi": 886,
      "An": 887,
      "ską": 888,
      "Kmici": 889,
      "Rze": 890,
      "dwo": 891,
      "czej": 892,
      "myśli": 893,
      "\".": 894,
      "sób": 895,
      "tedy": 896,
      "wem": 897,
      "cki": 898,
      "knął": 899,
      "Wokulski": 900,
      "trzeba": 901,
      "dzień": 902,
      "cić": 903,
      "tki": 904,
      "uwa": 905,
      "szym": 906,
      "Zagłoba": 907,
      "stwa": 908,
      "Pe": 909,
      "bowiem": 910,
      "jeśli": 911,
      "skich": 912,
      "świę": 913,
      "spoko": 914,
      "jedno": 915,
      "pli": 916,
      "ofi": 917,
      "Bóg": 918,
      "mieszka": 919,
      "lnie": 920,
      "nku": 921,
      "szło": 922,
      "ręce": 923,
      "wszystkich": 924,
      "zdo": 925,
      "wal": 926,
      "rzył": 927,
      "szli": 928,
      "Wię": 929,
      "jakie": 930,
      "łał": 931,
      "szał": 932,
      "dow": 933,
      "zł": 934,
      "00": 935,
      "cznych": 936,
      "19": 937,
      "mam": 938,
      "przecie": 939,
      "kla": 940,
      "jących": 941,
      "rami": 942,
      "dem": 943,
      "pol": 944,
      "woli": 945,
      "dzę": 946,
      "pla": 947,
      "wego": 948,
      "wały": 949,
      "powi": 950,
      "którego": 951,
      "Zby": 952,
      "tłu": 953,
      "gdyby": 954,
      "nki": 955,
      "woje": 956,
      "por": 957,
      "dobrze": 958,
      "dów": 959,
      "bla": 960,
      "coraz": 961,
      "cyj": 962,
      "żyć": 963,
      "tere": 964,
      "kobie": 965,
      "obie": 966,
      "piero": 967,
      "Pod": 968,
      "dalej": 969,
      "mają": 970,
      "lep": 971,
      "taki": 972,
      "właśnie": 973,
      "pom": 974,
      "szego": 975,
      "iż": 976,
      "czer": 977,
      "stąpi": 978,
      "oraz": 979,
      "pierwszy": 980,
      "sów": 981,
      "pło": 982,
      "wiem": 983,
      "parł": 984,
      "zam": 985,
      "nowu": 986,
      "wszystkie": 987,
      "Wołody": 988,
      "Wołodyj": 989,
      "gna": 990,
      "chciał": 991,
      "kło": 992,
      "nk": 993,
      "chwy": 994,
      "rząd": 995,
      "fu": 996,
      "wym": 997,
      "sem": 998,
      "ek": 999,
      "Bog": 1000,
      "dziś": 1001,
      "wido": 1002,
      "stanowi": 1003,
      "rodzi": 1004,
      "wych": 1005,
      "bardziej": 1006,
      "patrzy": 1007,
      "pró": 1008,
      "el": 1009,
      "zrobi": 1010,
      "ństwa": 1011,
      "stała": 1012,
      "dowa": 1013,
      "wszyscy": 1014,
      "śród": 1015,
      "szcz": 1016,
      "cje": 1017,
      "nimi": 1018,
      "puści": 1019,
      "zawsze": 1020,
      "szczy": 1021,
      "powiada": 1022,
      "żej": 1023,
      "ruszy": 1024,
      "masz": 1025,
      "głowę": 1026,
      "kona": 1027,
      "Pi": 1028,
      "każdy": 1029,
      "ho": 1030,
      "człowiek": 1031,
      "dziew": 1032,
      "Wa": 1033,
      "kapła": 1034,
      "Więc": 1035,
      "No": 1036,
      "spraw": 1037,
      "dom": 1038,
      "bezpie": 1039,
      "zby": 1040,
      "oni": 1041,
      "wło": 1042,
      "niech": 1043,
      "dzię": 1044,
      "sobą": 1045,
      "wój": 1046,
      "try": 1047,
      "równie": 1048,
      "one": 1049,
      "Kmicic": 1050,
      "lepie": 1051,
      "rzeczy": 1052,
      "nosi": 1053,
      "mości": 1054,
      "razem": 1055,
      "szła": 1056,
      "czasu": 1057,
      "lek": 1058,
      "pamię": 1059,
      "cem": 1060,
      "szlach": 1061,
      "ucie": 1062,
      "świat": 1063,
      "miała": 1064,
      "kać": 1065,
      "chem": 1066,
      "noc": 1067,
      "świad": 1068,
      "spa": 1069,
      "znowu": 1070,
      "dr": 1071,
      "prz": 1072,
      "dra": 1073,
      "pięk": 1074,
      "isto": 1075,
      "myślał": 1076,
      "drugi": 1077,
      "pozna": 1078,
      "ode": 1079,
      "kazał": 1080,
      "ludzie": 1081,
      "pisa": 1082,
      "póź": 1083,
      "spe": 1084,
      "stało": 1085,
      "czar": 1086,
      "obo": 1087,
      "wrócił": 1088,
      "ia": 1089,
      "wyda": 1090,
      "powo": 1091,
      "dna": 1092,
      "rozumie": 1093,
      "kr": 1094,
      "zale": 1095,
      "nach": 1096,
      "cych": 1097,
      "prawie": 1098,
      "Niech": 1099,
      "tó": 1100,
      "śpie": 1101,
      "dale": 1102,
      "dej": 1103,
      "Lu": 1104,
      "tku": 1105,
      "man": 1106,
      "dło": 1107,
      "om": 1108,
      "tni": 1109,
      "cach": 1110,
      "skar": 1111,
      "jeno": 1112,
      "owania": 1113,
      "posta": 1114,
      "dząc": 1115,
      "mość": 1116,
      "żu": 1117,
      "dzieci": 1118,
      "kilku": 1119,
      "czny": 1120,
      "Da": 1121,
      "tach": 1122,
      "Krzy": 1123,
      "emu": 1124,
      "głę": 1125,
      "twie": 1126,
      "następ": 1127,
      "Cze": 1128,
      "prę": 1129,
      "”.": 1130,
      "czyna": 1131,
      "gdyż": 1132,
      "kał": 1133,
      "kocha": 1134,
      "cznej": 1135,
      "przyj": 1136,
      "Mar": 1137,
      "owała": 1138,
      "oto": 1139,
      "zwie": 1140,
      "Kie": 1141,
      "zgo": 1142,
      ").": 1143,
      "au": 1144,
      "gła": 1145,
      "Pol": 1146,
      "pole": 1147,
      "tyle": 1148,
      "znów": 1149,
      "którą": 1150,
      "ziemi": 1151,
      "zę": 1152,
      "czyli": 1153,
      "Ku": 1154,
      "będą": 1155,
      "król": 1156,
      "drugie": 1157,
      "Dla": 1158,
      "lne": 1159,
      "rzecz": 1160,
      "sław": 1161,
      "dli": 1162,
      "jcie": 1163,
      "odparł": 1164,
      "takie": 1165,
      "mój": 1166,
      "nió": 1167,
      "dwó": 1168,
      "ego": 1169,
      "same": 1170,
      "słowa": 1171,
      "gów": 1172,
      "ner": 1173,
      "trafi": 1174,
      "wróci": 1175,
      "powiedział": 1176,
      "Tym": 1177,
      "rek": 1178,
      "sami": 1179,
      "środ": 1180,
      "skim": 1181,
      "Roz": 1182,
      "drz": 1183,
      "potrze": 1184,
      "dość": 1185,
      "niał": 1186,
      "tor": 1187,
      "przyjacie": 1188,
      "Kto": 1189,
      "dzenia": 1190,
      "jechał": 1191,
      "rok": 1192,
      "wam": 1193,
      "Bi": 1194,
      "prac": 1195,
      "życie": 1196,
      "nigdy": 1197,
      "niósł": 1198,
      "stary": 1199,
      "Me": 1200,
      "glą": 1201,
      "wreszcie": 1202,
      "zja": 1203,
      "żad": 1204,
      "Wołodyjowski": 1205,
      "ludz": 1206,
      "Już": 1207,
      "lem": 1208,
      "kości": 1209,
      "Mu": 1210,
      "brze": 1211,
      "ią": 1212,
      "nowa": 1213,
      "kow": 1214,
      "pis": 1215,
      "Pro": 1216,
      "byli": 1217,
      "cięż": 1218,
      "ec": 1219,
      "świą": 1220,
      "potę": 1221,
      "ówczas": 1222,
      "dzieli": 1223,
      "odpowiedział": 1224,
      "nka": 1225,
      "twarz": 1226,
      "spoj": 1227,
      "II": 1228,
      "wić": 1229,
      "taj": 1230,
      "ogro": 1231,
      "Pra": 1232,
      "got": 1233,
      "sięcy": 1234,
      "zdr": 1235,
      "wyso": 1236,
      "stanie": 1237,
      "poda": 1238,
      "ktu": 1239,
      "głowy": 1240,
      "Że": 1241,
      "kle": 1242,
      "nagle": 1243,
      "konie": 1244,
      "strony": 1245,
      "Może": 1246,
      "jestem": 1247,
      "ntów": 1248,
      "lepiej": 1249,
      "mina": 1250,
      "towarzy": 1251,
      "dopiero": 1252,
      "żał": 1253,
      "czenia": 1254,
      "również": 1255,
      "ony": 1256,
      "usz": 1257,
      "kowa": 1258,
      "czenie": 1259,
      "bia": 1260,
      "wości": 1261,
      "spokoj": 1262,
      "dła": 1263,
      "sce": 1264,
      "mor": 1265,
      "bywa": 1266,
      "pia": 1267,
      "War": 1268,
      "osob": 1269,
      "padł": 1270,
      "Jest": 1271,
      "dek": 1272,
      "ina": 1273,
      "panu": 1274,
      "chyba": 1275,
      "jął": 1276,
      "Wszy": 1277,
      "Cza": 1278,
      "wiado": 1279,
      "dia": 1280,
      "zupeł": 1281,
      "kty": 1282,
      "jeżeli": 1283,
      "lan": 1284,
      "długo": 1285,
      "lił": 1286,
      "Skrze": 1287,
      "kowi": 1288,
      "ństwo": 1289,
      "chwilę": 1290,
      "ląd": 1291,
      "mą": 1292,
      "mowa": 1293,
      "łam": 1294,
      "sposób": 1295,
      "Skrzetu": 1296,
      "ńca": 1297,
      "wyż": 1298,
      "jedy": 1299,
      "zawołał": 1300,
      "ude": 1301,
      "lew": 1302,
      "ntu": 1303,
      "kład": 1304,
      "pospo": 1305,
      "innych": 1306,
      "mówić": 1307,
      "pierwsze": 1308,
      "twier": 1309,
      "nikt": 1310,
      "ciebie": 1311,
      "czki": 1312,
      "dziec": 1313,
      "pospoli": 1314,
      "ol": 1315,
      "krę": 1316,
      "biera": 1317,
      "życia": 1318,
      "),": 1319,
      "jakiś": 1320,
      "gospo": 1321,
      "god": 1322,
      "chorą": 1323,
      "widział": 1324,
      "żd": 1325,
      "rozma": 1326,
      "pój": 1327,
      "was": 1328,
      "żem": 1329,
      "zach": 1330,
      "Mich": 1331,
      "rękę": 1332,
      "grze": 1333,
      "dno": 1334,
      "łę": 1335,
      "ster": 1336,
      "tel": 1337,
      "strasz": 1338,
      "wraca": 1339,
      "dlatego": 1340,
      "!”": 1341,
      "mini": 1342,
      "swoje": 1343,
      "kli": 1344,
      "nością": 1345,
      "bą": 1346,
      "szep": 1347,
      "In": 1348,
      "odrzekł": 1349,
      "sen": 1350,
      "ele": 1351,
      "wśród": 1352,
      "gał": 1353,
      "mal": 1354,
      "krót": 1355,
      "ostat": 1356,
      "We": 1357,
      "sztu": 1358,
      "temu": 1359,
      "trochę": 1360,
      "Ży": 1361,
      "wiesz": 1362,
      "zes": 1363,
      "wzią": 1364,
      "śle": 1365,
      "rzekła": 1366,
      "dal": 1367,
      "pracy": 1368,
      "nocy": 1369,
      "skrzy": 1370,
      "głu": 1371,
      "wiąza": 1372,
      "Jan": 1373,
      "het": 1374,
      "dziw": 1375,
      "gip": 1376,
      "dwóch": 1377,
      "spytał": 1378,
      "zbli": 1379,
      "pal": 1380,
      "--": 1381,
      "zwa": 1382,
      "ria": 1383,
      "ust": 1384,
      "niach": 1385,
      "ST": 1386,
      "sji": 1387,
      "przód": 1388,
      "Dzi": 1389,
      "został": 1390,
      "kol": 1391,
      "czeka": 1392,
      "trą": 1393,
      "woła": 1394,
      "sę": 1395,
      "prawdę": 1396,
      "polity": 1397,
      "cier": 1398,
      "nicju": 1399,
      "Go": 1400,
      "tąd": 1401,
      "wiele": 1402,
      "chłop": 1403,
      "Winicju": 1404,
      "słucha": 1405,
      "widzi": 1406,
      "mat": 1407,
      "rad": 1408,
      "śni": 1409,
      "On": 1410,
      "wszystkim": 1411,
      "zabi": 1412,
      "cer": 1413,
      "My": 1414,
      "ile": 1415,
      "ple": 1416,
      "dali": 1417,
      "rywa": 1418,
      "czaj": 1419,
      "obec": 1420,
      "panna": 1421,
      "ratu": 1422,
      "mach": 1423,
      "mod": 1424,
      "cznego": 1425,
      "rach": 1426,
      "Re": 1427,
      "byś": 1428,
      "wość": 1429,
      "pią": 1430,
      "obro": 1431,
      "cznym": 1432,
      "kamie": 1433,
      "twar": 1434,
      "sprawie": 1435,
      "licy": 1436,
      "tery": 1437,
      "Szwe": 1438,
      "che": 1439,
      "uśmie": 1440,
      "Jeśli": 1441,
      "służ": 1442,
      "Tymczasem": 1443,
      "okre": 1444,
      "Zbyszko": 1445,
      "oka": 1446,
      "gani": 1447,
      "razy": 1448,
      "Naj": 1449,
      "tysięcy": 1450,
      "śla": 1451,
      "stru": 1452,
      "Mać": 1453,
      "ucz": 1454,
      "Bogu": 1455,
      "komu": 1456,
      "dosta": 1457,
      "cami": 1458,
      "rwał": 1459,
      "kogo": 1460,
      "wiek": 1461,
      "bły": 1462,
      "puł": 1463,
      "gły": 1464,
      "ażeby": 1465,
      "całą": 1466,
      "wielki": 1467,
      "robo": 1468,
      "daj": 1469,
      "dziesią": 1470,
      "serce": 1471,
      "tami": 1472,
      "rzyć": 1473,
      "najmniej": 1474,
      "wasz": 1475,
      "później": 1476,
      "klę": 1477,
      "raź": 1478,
      "stały": 1479,
      "widać": 1480,
      "swego": 1481,
      "intere": 1482,
      "Warsza": 1483,
      "strzy": 1484,
      "czasie": 1485,
      "zbyt": 1486,
      "koniec": 1487,
      "ono": 1488,
      "Be": 1489,
      "razie": 1490,
      "ti": 1491,
      "ńskiego": 1492,
      "szły": 1493,
      "net": 1494,
      "dach": 1495,
      "szyb": 1496,
      "uj": 1497,
      "świecie": 1498,
      "zbro": 1499,
      "chro": 1500,
      "kole": 1501,
      "miasta": 1502,
      "zwał": 1503,
      "ak": 1504,
      "gli": 1505,
      "mną": 1506,
      "wca": 1507,
      "czną": 1508,
      "gości": 1509,
      "głów": 1510,
      "księcia": 1511,
      "spotka": 1512,
      "nęły": 1513,
      "męż": 1514,
      "właści": 1515,
      "krew": 1516,
      "głosem": 1517,
      "Dob": 1518,
      "wania": 1519,
      "per": 1520,
      "brzy": 1521,
      "mieć": 1522,
      "tele": 1523,
      "chi": 1524,
      "bó": 1525,
      "szczegó": 1526,
      "sp": 1527,
      "owanie": 1528,
      "sek": 1529,
      "resztą": 1530,
      "stoj": 1531,
      "mały": 1532,
      "zupełnie": 1533,
      "So": 1534,
      "żenie": 1535,
      "licz": 1536,
      "strz": 1537,
      "kój": 1538,
      "nii": 1539,
      "dziesię": 1540,
      "pił": 1541,
      "proce": 1542,
      "wspo": 1543,
      "nadzie": 1544,
      "ształ": 1545,
      "będę": 1546,
      "gląd": 1547,
      "patrz": 1548,
      "obu": 1549,
      "jeżd": 1550,
      "wicz": 1551,
      "ot": 1552,
      "Cho": 1553,
      "smu": 1554,
      "dwu": 1555,
      "lny": 1556,
      "wało": 1557,
      "lnic": 1558,
      "nęli": 1559,
      "czoraj": 1560,
      "moje": 1561,
      "rii": 1562,
      "Panie": 1563,
      "zoba": 1564,
      "tom": 1565,
      "młody": 1566,
      "owią": 1567,
      "Jako": 1568,
      "Bu": 1569,
      "mogę": 1570,
      "wzię": 1571,
      "drzwi": 1572,
      "nta": 1573,
      "samy": 1574,
      "wody": 1575,
      "koło": 1576,
      "mimo": 1577,
      "twarzy": 1578,
      "śmierci": 1579,
      "łów": 1580,
      "wiał": 1581,
      "szczęśli": 1582,
      "nieco": 1583,
      "stępu": 1584,
      "zdu": 1585,
      "mogą": 1586,
      "chodzą": 1587,
      "Pie": 1588,
      "wówczas": 1589,
      "pada": 1590,
      "maga": 1591,
      "gach": 1592,
      "publi": 1593,
      "he": 1594,
      "komi": 1595,
      "gry": 1596,
      "wtedy": 1597,
      "szczo": 1598,
      "zabe": 1599,
      "zaczę": 1600,
      "ciaż": 1601,
      "puszcza": 1602,
      "mogła": 1603,
      "krzyknął": 1604,
      "drodze": 1605,
      "dko": 1606,
      "wiście": 1607,
      "głową": 1608,
      "drogi": 1609,
      "skła": 1610,
      "swoją": 1611,
      "kolwiek": 1612,
      "\",": 1613,
      "ron": 1614,
      "wil": 1615,
      "mieli": 1616,
      "fara": 1617,
      "bił": 1618,
      "der": 1619,
      "decy": 1620,
      "skoń": 1621,
      "sach": 1622,
      "Kiedy": 1623,
      "Dzie": 1624,
      "jaką": 1625,
      "Teraz": 1626,
      "uda": 1627,
      "takim": 1628,
      "jednym": 1629,
      "Ram": 1630,
      "nowe": 1631,
      "wraz": 1632,
      "powiedzieć": 1633,
      "groma": 1634,
      "bud": 1635,
      "przedsta": 1636,
      "Ha": 1637,
      "wska": 1638,
      "kształ": 1639,
      "ns": 1640,
      "czał": 1641,
      "duszy": 1642,
      "infor": 1643,
      "jednej": 1644,
      "dam": 1645,
      "choćby": 1646,
      "czna": 1647,
      "list": 1648,
      "słów": 1649,
      "kaza": 1650,
      "kazu": 1651,
      "rycerz": 1652,
      "row": 1653,
      "swoich": 1654,
      "wro": 1655,
      "nau": 1656,
      "tać": 1657,
      "jas": 1658,
      "rozu": 1659,
      "Andrze": 1660,
      "Izabe": 1661,
      "dzien": 1662,
      "szczęście": 1663,
      "Mie": 1664,
      "zwycię": 1665,
      "razu": 1666,
      "drogę": 1667,
      "żar": 1668,
      "serca": 1669,
      "Wszyst": 1670,
      "zła": 1671,
      "wiedział": 1672,
      "takich": 1673,
      "znala": 1674,
      "dobry": 1675,
      "Boże": 1676,
      "pomo": 1677,
      "zaczą": 1678,
      "lnych": 1679,
      "snął": 1680,
      "inne": 1681,
      "dzenie": 1682,
      "kur": 1683,
      "powin": 1684,
      "rzenia": 1685,
      "zmar": 1686,
      "bec": 1687,
      "obowią": 1688,
      "brał": 1689,
      "dobre": 1690,
      "tow": 1691,
      "naprzód": 1692,
      "chwila": 1693,
      "glę": 1694,
      "polski": 1695,
      "wiąz": 1696,
      "korzy": 1697,
      "organi": 1698,
      "pierw": 1699,
      "ckiego": 1700,
      "ponie": 1701,
      "win": 1702,
      "możli": 1703,
      "przej": 1704,
      "cego": 1705,
      "zamie": 1706,
      "prawo": 1707,
      "ńce": 1708,
      "zapa": 1709,
      "śniej": 1710,
      "jedzie": 1711,
      "jechać": 1712,
      "kolej": 1713,
      "nasz": 1714,
      "rak": 1715,
      "królew": 1716,
      "wybo": 1717,
      "taka": 1718,
      "całe": 1719,
      "prowadzi": 1720,
      "Egip": 1721,
      "boga": 1722,
      "cją": 1723,
      "ogó": 1724,
      "trzymał": 1725,
      "logi": 1726,
      "całej": 1727,
      "lin": 1728,
      "śmierć": 1729,
      "pić": 1730,
      "rozm": 1731,
      "rado": 1732,
      "łek": 1733,
      "kraj": 1734,
      "biał": 1735,
      "lud": 1736,
      "Chmie": 1737,
      "jącego": 1738,
      "cieka": 1739,
      "myśle": 1740,
      "daje": 1741,
      "wiać": 1742,
      "mili": 1743,
      "prawda": 1744,
      "przecież": 1745,
      "tne": 1746,
      "rzuca": 1747,
      "Boga": 1748,
      "zaj": 1749,
      "Ksią": 1750,
      "bior": 1751,
      "wszel": 1752,
      "wzglę": 1753,
      "chnął": 1754,
      "Niem": 1755,
      "dowie": 1756,
      "skó": 1757,
      "stry": 1758,
      "zami": 1759,
      "tała": 1760,
      "dostoj": 1761,
      "wielu": 1762,
      "człowieka": 1763,
      "Gdzie": 1764,
      "nowi": 1765,
      "opie": 1766,
      "cio": 1767,
      "czach": 1768,
      "najwięk": 1769,
      "inaczej": 1770,
      "cóż": 1771,
      "nęło": 1772,
      "powta": 1773,
      "miejscu": 1774,
      "świąty": 1775,
      "Ci": 1776,
      "tymi": 1777,
      "bić": 1778,
      "znale": 1779,
      "bło": 1780,
      "cj": 1781,
      "często": 1782,
      "Mó": 1783,
      "kosz": 1784,
      "kraju": 1785,
      "dziwił": 1786,
      "pio": 1787,
      "Dan": 1788,
      "żony": 1789,
      "dawało": 1790,
      "Ki": 1791,
      "góry": 1792,
      "końcu": 1793,
      "nato": 1794,
      "jakieś": 1795,
      "Winicjusz": 1796,
      "Ze": 1797,
      "sio": 1798,
      "Al": 1799,
      "naz": 1800,
      "poło": 1801,
      "cząc": 1802,
      "brać": 1803,
      "takiego": 1804,
      "czek": 1805,
      "pał": 1806,
      "łó": 1807,
      "rady": 1808,
      "tysią": 1809,
      "czyz": 1810,
      "skiem": 1811,
      "mru": 1812,
      "żenia": 1813,
      "sier": 1814,
      "piersi": 1815,
      "jącym": 1816,
      "Juran": 1817,
      "poja": 1818,
      "jeź": 1819,
      "swoim": 1820,
      "niesie": 1821,
      "połu": 1822,
      "lał": 1823,
      "zbie": 1824,
      "ńców": 1825,
      "czyła": 1826,
      "mogli": 1827,
      "swej": 1828,
      "Rzeczy": 1829,
      "Był": 1830,
      "Maćko": 1831,
      "maty": 1832,
      "rozle": 1833,
      "chociaż": 1834,
      "taką": 1835,
      "Cz": 1836,
      "otwar": 1837,
      "staro": 1838,
      "gląda": 1839,
      "nogi": 1840,
      "ziemię": 1841,
      "dziewczy": 1842,
      "zię": 1843,
      "owia": 1844,
      "Oto": 1845,
      "jemy": 1846,
      "świata": 1847,
      "należy": 1848,
      "niepo": 1849,
      "wcze": 1850,
      "przyszło": 1851,
      "ist": 1852,
      "zaję": 1853,
      "ble": 1854,
      "chorąg": 1855,
      "hi": 1856,
      "ńcu": 1857,
      "La": 1858,
      "uczu": 1859,
      "zgi": 1860,
      "ścija": 1861,
      "ręką": 1862,
      "mało": 1863,
      "rzucił": 1864,
      "ciągnął": 1865,
      "Skrzetuski": 1866,
      "jesz": 1867,
      "stare": 1868,
      "prawa": 1869,
      "jaka": 1870,
      "ałam": 1871,
      "otwo": 1872,
      "nków": 1873,
      "osób": 1874,
      "ur": 1875,
      "chrze": 1876,
      "lata": 1877,
      "Przez": 1878,
      "Fe": 1879,
      "inni": 1880,
      "pięć": 1881,
      "tna": 1882,
      "usza": 1883,
      "wielkie": 1884,
      "waćpan": 1885,
      "wyj": 1886,
      "głowie": 1887,
      "zasa": 1888,
      "jednego": 1889,
      "giem": 1890,
      "stronę": 1891,
      "siada": 1892,
      "powtó": 1893,
      "jakim": 1894,
      "moja": 1895,
      "sama": 1896,
      "zdy": 1897,
      "zapytał": 1898,
      "tobie": 1899,
      "sprze": 1900,
      "zji": 1901,
      "czka": 1902,
      "niła": 1903,
      "mienia": 1904,
      "Staś": 1905,
      "miejsce": 1906,
      "bła": 1907,
      "natu": 1908,
      "wypad": 1909,
      "ktor": 1910,
      "bezpiecze": 1911,
      "lnego": 1912,
      "zapew": 1913,
      "miecz": 1914,
      "pozy": 1915,
      "Chmielnic": 1916,
      "wczoraj": 1917,
      "znaczy": 1918,
      "póki": 1919,
      "zaczął": 1920,
      "ali": 1921,
      "kwi": 1922,
      "tny": 1923,
      "kazy": 1924,
      "wojska": 1925,
      "wdzię": 1926,
      "nieprzyjacie": 1927,
      "jecha": 1928,
      "ren": 1929,
      "pita": 1930,
      "Tam": 1931,
      "wasza": 1932,
      "ńskich": 1933,
      "uży": 1934,
      "fir": 1935,
      "menta": 1936,
      "wanie": 1937,
      "wojny": 1938,
      "owskiego": 1939,
      "ciał": 1940,
      "okru": 1941,
      "siadł": 1942,
      "chodził": 1943,
      "lle": 1944,
      "wale": 1945,
      "prosi": 1946,
      "wąt": 1947,
      "niebo": 1948,
      "bio": 1949,
      "tymczasem": 1950,
      "miłości": 1951,
      "rozpa": 1952,
      "krwi": 1953,
      "miały": 1954,
      "cąc": 1955,
      "lskiego": 1956,
      "stać": 1957,
      "preze": 1958,
      "widok": 1959,
      "niebie": 1960,
      "cieli": 1961,
      "jąca": 1962,
      "ktoś": 1963,
      "Ry": 1964,
      "Se": 1965,
      "zem": 1966,
      "owali": 1967,
      "zamk": 1968,
      "miało": 1969,
      "dziedzi": 1970,
      "wódz": 1971,
      "podej": 1972,
      "cym": 1973,
      "lony": 1974,
      "potrzeb": 1975,
      "EL": 1976,
      "nienia": 1977,
      "tychmiast": 1978,
      "bój": 1979,
      "mio": 1980,
      "miesią": 1981,
      "cała": 1982,
      "szero": 1983,
      "jedną": 1984,
      "podniósł": 1985,
      "prezy": 1986,
      "pokoju": 1987,
      "dne": 1988,
      "sąd": 1989,
      "trza": 1990,
      "prawdzie": 1991,
      "potęż": 1992,
      "ckie": 1993,
      "obok": 1994,
      "chrześcija": 1995,
      "wojsk": 1996,
      "daleko": 1997,
      "konia": 1998,
      "wach": 1999,
      "Ten": 2000,
      "głębo": 2001,
      "dle": 2002,
      "ciec": 2003,
      "ramiona": 2004,
      "szem": 2005,
      "pusty": 2006,
      "pospolitej": 2007,
      "idzie": 2008,
      "kul": 2009,
      "jesteś": 2010,
      "zdra": 2011,
      "języ": 2012,
      "dała": 2013,
      "ńskie": 2014,
      "Potem": 2015,
      "czony": 2016,
      "szwe": 2017,
      "gorą": 2018,
      "ogrom": 2019,
      "wcale": 2020,
      "mówię": 2021,
      "uważa": 2022,
      "gospodar": 2023,
      "dziesiąt": 2024,
      "200": 2025,
      "ckich": 2026,
      "Słu": 2027,
      "ukry": 2028,
      "wnę": 2029,
      "lar": 2030,
      "res": 2031,
      "szwedz": 2032,
      "jącą": 2033,
      "Gdyby": 2034,
      "dało": 2035,
      "czeniu": 2036,
      "właszcza": 2037,
      "Woj": 2038,
      "Sam": 2039,
      "parę": 2040,
      "patrzył": 2041,
      "ES": 2042,
      "ryka": 2043,
      "ment": 2044,
      "czerwo": 2045,
      "Petro": 2046,
      "lnym": 2047,
      "współ": 2048,
      "rusze": 2049,
      "dego": 2050,
      "spodzie": 2051,
      "gór": 2052,
      "drugiej": 2053,
      "samym": 2054,
      "Cóż": 2055,
      "Trze": 2056,
      "żało": 2057,
      "zacji": 2058,
      "chcesz": 2059,
      "wobec": 2060,
      "com": 2061,
      "około": 2062,
      "Petroniu": 2063,
      "Sie": 2064,
      "pała": 2065,
      "olbrzy": 2066,
      "Michał": 2067,
      "wski": 2068,
      "natychmiast": 2069,
      "Wiel": 2070,
      "iść": 2071,
      "świ": 2072,
      "pat": 2073,
      "czyn": 2074,
      "lnej": 2075,
      "dlaczego": 2076,
      "poczęła": 2077,
      "pomoc": 2078,
      "rzuci": 2079,
      "oczyma": 2080,
      "Ot": 2081,
      "lić": 2082,
      "Tata": 2083,
      "warto": 2084,
      "Pola": 2085,
      "uli": 2086,
      "ńskiej": 2087,
      "Rzeczypospolitej": 2088,
      "let": 2089,
      "jeżdża": 2090,
      "swój": 2091,
      "zwrócił": 2092,
      "ręku": 2093,
      "ądź": 2094,
      "Bar": 2095,
      "muje": 2096,
      "gami": 2097,
      "wór": 2098,
      "łeś": 2099,
      "chodzić": 2100,
      "słyszał": 2101,
      "Ligi": 2102,
      "każdym": 2103,
      "Czar": 2104,
      "Wła": 2105,
      "tur": 2106,
      "grani": 2107,
      "fo": 2108,
      "prawdzi": 2109,
      "chni": 2110,
      "gor": 2111,
      "kola": 2112,
      "długi": 2113,
      "znać": 2114,
      "albowiem": 2115,
      "króla": 2116,
      "przekona": 2117,
      "prostu": 2118,
      "samego": 2119,
      "naprawdę": 2120,
      "proszę": 2121,
      "Jeżeli": 2122,
      "grzy": 2123,
      "tajem": 2124,
      "Ody": 2125,
      "ić": 2126,
      "rzem": 2127,
      "wybu": 2128,
      "społe": 2129,
      "Chry": 2130,
      "kły": 2131,
      "powiem": 2132,
      "nar": 2133,
      "odda": 2134,
      "obra": 2135,
      "niejsze": 2136,
      "znaleź": 2137,
      "He": 2138,
      "ul": 2139,
      "komen": 2140,
      "musiał": 2141,
      "sma": 2142,
      "nieść": 2143,
      "nasze": 2144,
      "doty": 2145,
      "west": 2146,
      "prost": 2147,
      "…”": 2148,
      "chcę": 2149,
      "minu": 2150,
      "ciągle": 2151,
      "hetma": 2152,
      "wieczo": 2153,
      "ilo": 2154,
      "twy": 2155,
      "rabia": 2156,
      "koła": 2157,
      "ceza": 2158,
      "wziął": 2159,
      "Ne": 2160,
      "śnia": 2161,
      "szak": 2162,
      "duje": 2163,
      "Bohu": 2164,
      "Przed": 2165,
      "zm": 2166,
      "tua": 2167,
      "prawi": 2168,
      "biegł": 2169,
      "dzej": 2170,
      "Fa": 2171,
      "ciąż": 2172,
      "odpowiedzi": 2173,
      "knia": 2174,
      "sja": 2175,
      "gotowa": 2176,
      "żeś": 2177,
      "państwa": 2178,
      "wyja": 2179,
      "woda": 2180,
      "nąwszy": 2181,
      "ber": 2182,
      "prócz": 2183,
      "kan": 2184,
      "znał": 2185,
      "Jagie": 2186,
      "ojciec": 2187,
      "zwykle": 2188,
      "Spo": 2189,
      "yy": 2190,
      "gać": 2191,
      "nagro": 2192,
      "poch": 2193,
      "świet": 2194,
      "siły": 2195,
      "szybko": 2196,
      "Nel": 2197,
      "Ru": 2198,
      "żna": 2199,
      "przypad": 2200,
      "zio": 2201,
      "doj": 2202,
      "mamy": 2203,
      "stosu": 2204,
      "żyła": 2205,
      "Kon": 2206,
      "rat": 2207,
      "kup": 2208,
      "pracow": 2209,
      "wiadomo": 2210,
      "rski": 2211,
      "obej": 2212,
      "słusz": 2213,
      "miłość": 2214,
      "okaz": 2215,
      "poczęli": 2216,
      "Andrzej": 2217,
      "Euro": 2218,
      "Sy": 2219,
      "histo": 2220,
      "ciel": 2221,
      "poczęły": 2222,
      "tmo": 2223,
      "czone": 2224,
      "wzro": 2225,
      "miejsca": 2226,
      "wnie": 2227,
      "zdzi": 2228,
      "Ramzes": 2229,
      "niez": 2230,
      "sząc": 2231,
      "weso": 2232,
      "ziem": 2233,
      "puścił": 2234,
      "zim": 2235,
      "lach": 2236,
      "wnio": 2237,
      "groź": 2238,
      "Nic": 2239,
      "ruszył": 2240,
      "rowi": 2241,
      "zwłaszcza": 2242,
      "koni": 2243,
      "mojej": 2244,
      "szył": 2245,
      "Si": 2246,
      "rzeć": 2247,
      "dodał": 2248,
      "swojej": 2249,
      "owane": 2250,
      "cór": 2251,
      "pozosta": 2252,
      "widzę": 2253,
      "Danu": 2254,
      "urzę": 2255,
      "dużo": 2256,
      "szuka": 2257,
      "nne": 2258,
      "całym": 2259,
      "dowo": 2260,
      "nien": 2261,
      "poru": 2262,
      "dzwo": 2263,
      "Jedna": 2264,
      "Dzię": 2265,
      "części": 2266,
      "górę": 2267,
      "Praw": 2268,
      "pil": 2269,
      "niewol": 2270,
      "leń": 2271,
      "nikiem": 2272,
      "rzenie": 2273,
      "błę": 2274,
      "Polsce": 2275,
      "naście": 2276,
      "dotąd": 2277,
      "kara": 2278,
      "kuję": 2279,
      "stoi": 2280,
      "dawno": 2281,
      "łego": 2282,
      "niejszy": 2283,
      "trud": 2284,
      "ojca": 2285,
      "zarazem": 2286,
      "ogar": 2287,
      "chów": 2288,
      "obraz": 2289,
      "szere": 2290,
      "innego": 2291,
      "powiadał": 2292,
      "jącej": 2293,
      "wer": 2294,
      "jutro": 2295,
      "oczach": 2296,
      "szczą": 2297,
      "dzieje": 2298,
      "przyję": 2299,
      "Zy": 2300,
      "grz": 2301,
      "ił": 2302,
      "zało": 2303,
      "ciała": 2304,
      "wili": 2305,
      "wyszedł": 2306,
      "Ce": 2307,
      "ogni": 2308,
      "żołnierzy": 2309,
      "rew": 2310,
      "podsta": 2311,
      "progra": 2312,
      "nowo": 2313,
      "listy": 2314,
      "żegna": 2315,
      "siedzi": 2316,
      "żona": 2317,
      "trzymać": 2318,
      "18": 2319,
      "De": 2320,
      "dąc": 2321,
      "oczu": 2322,
      "cześnie": 2323,
      "pienię": 2324,
      "Bę": 2325,
      "Cie": 2326,
      "syn": 2327,
      "klu": 2328,
      "rol": 2329,
      "dziecko": 2330,
      "ad": 2331,
      "speł": 2332,
      "potrafi": 2333,
      "mian": 2334,
      "pali": 2335,
      "Książę": 2336,
      "udział": 2337,
      "pora": 2338,
      "mistrz": 2339,
      "stępo": 2340,
      "Tylko": 2341,
      "ńskim": 2342,
      "znajo": 2343,
      "Kró": 2344,
      "cka": 2345,
      "199": 2346,
      "Au": 2347,
      "nom": 2348,
      "głowa": 2349,
      "część": 2350,
      "Jego": 2351,
      "Ar": 2352,
      "kwia": 2353,
      "mieni": 2354,
      "spostrze": 2355,
      "szlachci": 2356,
      "Powie": 2357,
      "ponad": 2358,
      "moim": 2359,
      "mieniu": 2360,
      "życiu": 2361,
      "została": 2362,
      "swych": 2363,
      "sposob": 2364,
      "trzech": 2365,
      "powodu": 2366,
      "Ge": 2367,
      "pomina": 2368,
      "wami": 2369,
      "sytua": 2370,
      "następnie": 2371,
      "jechali": 2372,
      "rał": 2373,
      "zmia": 2374,
      "kont": 2375,
      "tutaj": 2376,
      "skał": 2377,
      "pozwoli": 2378,
      "Kor": 2379,
      "waru": 2380,
      "niku": 2381,
      "wiecz": 2382,
      "stos": 2383,
      "rąk": 2384,
      "początku": 2385,
      "wspó": 2386,
      "spi": 2387,
      "stem": 2388,
      "zer": 2389,
      "wszech": 2390,
      "mysł": 2391,
      "FI": 2392,
      "tys": 2393,
      "prowadził": 2394,
      "Her": 2395,
      "swą": 2396,
      "miar": 2397,
      "czyni": 2398,
      "Zo": 2399,
      "kąd": 2400,
      "śre": 2401,
      "niemie": 2402,
      "pomyślał": 2403,
      "ściu": 2404,
      "pienią": 2405,
      "mek": 2406,
      "bry": 2407,
      "gwia": 2408,
      "jąć": 2409,
      "lone": 2410,
      "rium": 2411,
      "pułkow": 2412,
      "zni": 2413,
      "zapła": 2414,
      "auto": 2415,
      "zresztą": 2416,
      "zamiast": 2417,
      "tan": 2418,
      "soby": 2419,
      "prędzej": 2420,
      "przewo": 2421,
      "przykład": 2422,
      "znalazł": 2423,
      "kwa": 2424,
      "poważ": 2425,
      "mią": 2426,
      "spod": 2427,
      "proje": 2428,
      "cztery": 2429,
      "poprzed": 2430,
      "skiemu": 2431,
      "podo": 2432,
      "pokry": 2433,
      "raczej": 2434,
      "Pu": 2435,
      "mąd": 2436,
      "pry": 2437,
      "zawie": 2438,
      "krzyk": 2439,
      "robić": 2440,
      "jakiej": 2441,
      "owany": 2442,
      "czuł": 2443,
      "wielką": 2444,
      "10": 2445,
      "czem": 2446,
      "nicę": 2447,
      "dług": 2448,
      "Pio": 2449,
      "ckiej": 2450,
      "takiej": 2451,
      "czych": 2452,
      "stron": 2453,
      "krótce": 2454,
      "naszych": 2455,
      "para": 2456,
      "głoś": 2457,
      "ksiądz": 2458,
      "wpły": 2459,
      "wciąż": 2460,
      "przerwał": 2461,
      "pewno": 2462,
      "Koza": 2463,
      "zaba": 2464,
      "mienie": 2465,
      "siła": 2466,
      "widocznie": 2467,
      "lną": 2468,
      "lności": 2469,
      "swe": 2470,
      "zba": 2471,
      "trwo": 2472,
      "Oj": 2473,
      "zgu": 2474,
      "czło": 2475,
      "fina": 2476,
      "najlep": 2477,
      "----": 2478,
      "dniu": 2479,
      "zwo": 2480,
      "panem": 2481,
      "Polski": 2482,
      "słał": 2483,
      "spokojnie": 2484,
      "brz": 2485,
      "spie": 2486,
      "stwie": 2487,
      "dzili": 2488,
      "dami": 2489,
      "myślę": 2490,
      "niony": 2491,
      "ukła": 2492,
      "zbu": 2493,
      "lega": 2494,
      "narod": 2495,
      "chmu": 2496,
      "informa": 2497,
      "Du": 2498,
      "wnet": 2499,
      "wprawdzie": 2500,
      "pewnie": 2501,
      "Wszystko": 2502,
      "15": 2503,
      "Któ": 2504,
      "kowie": 2505,
      "ńska": 2506,
      "lite": 2507,
      "pacho": 2508,
      "myśla": 2509,
      "Tade": 2510,
      "krzyw": 2511,
      "prędko": 2512,
      "Pier": 2513,
      "imię": 2514,
      "znak": 2515,
      "zamku": 2516,
      "wydo": 2517,
      "ciągu": 2518,
      "tłuma": 2519,
      "ME": 2520,
      "wyraź": 2521,
      "rozpo": 2522,
      "zywa": 2523,
      "fil": 2524,
      "gniew": 2525,
      "pochy": 2526,
      "Jeszcze": 2527,
      "jakoby": 2528,
      "am": 2529,
      "jda": 2530,
      "ucze": 2531,
      "doda": 2532,
      "nemu": 2533,
      "dobro": 2534,
      "Ho": 2535,
      "wsty": 2536,
      "czkę": 2537,
      "państ": 2538,
      "mego": 2539,
      "żołnierz": 2540,
      "natomiast": 2541,
      "lenia": 2542,
      "skąd": 2543,
      "stej": 2544,
      "kół": 2545,
      "Chrystu": 2546,
      "nowy": 2547,
      "sre": 2548,
      "STO": 2549,
      "porząd": 2550,
      "łatwo": 2551,
      "słowo": 2552,
      "Wtem": 2553,
      "dny": 2554,
      "mił": 2555,
      "mogło": 2556,
      "sprawiedli": 2557,
      "Izabela": 2558,
      "kor": 2559,
      "doświad": 2560,
      "tyka": 2561,
      "podczas": 2562,
      "sercu": 2563,
      "będziesz": 2564,
      "chcą": 2565,
      "waszej": 2566,
      "biały": 2567,
      "set": 2568,
      "seł": 2569,
      "skoczył": 2570,
      "brak": 2571,
      "Sę": 2572,
      "ostro": 2573,
      "tobli": 2574,
      "prowadzić": 2575,
      "zostanie": 2576,
      "źle": 2577,
      "jakiego": 2578,
      "przede": 2579,
      "spojrzał": 2580,
      "groz": 2581,
      "wiła": 2582,
      "częście": 2583,
      "gię": 2584,
      "mował": 2585,
      "tre": 2586,
      "panowie": 2587,
      "kobiety": 2588,
      "nice": 2589,
      "mówiła": 2590,
      "sława": 2591,
      "poszedł": 2592,
      "stop": 2593,
      "miejsc": 2594,
      "ura": 2595,
      "poł": 2596,
      "kieru": 2597,
      "gan": 2598,
      "loka": 2599,
      "interes": 2600,
      "próż": 2601,
      "gorze": 2602,
      "ręko": 2603,
      "wód": 2604,
      "ocho": 2605,
      "postanowi": 2606,
      "liście": 2607,
      "!\"": 2608,
      "oce": 2609,
      "związ": 2610,
      "rob": 2611,
      "całkiem": 2612,
      "Dobrze": 2613,
      "mówiąc": 2614,
      "blisko": 2615,
      "siaj": 2616,
      "padła": 2617,
      "pierwszej": 2618,
      "faraon": 2619,
      "Su": 2620,
      "inny": 2621,
      "równa": 2622,
      "Fran": 2623,
      "Hi": 2624,
      "gnął": 2625,
      "min": 2626,
      "muzy": 2627,
      "szar": 2628,
      "Petroniusz": 2629,
      "zmu": 2630,
      "doku": 2631,
      "przyszedł": 2632,
      "FEL": 2633,
      "powa": 2634,
      "pory": 2635,
      "głosy": 2636,
      "wielkim": 2637,
      "FISTO": 2638,
      "MEFISTO": 2639,
      "FELES": 2640,
      "MEFISTOFELES": 2641,
      "pocie": 2642,
      "mate": 2643,
      "żone": 2644,
      "specja": 2645,
      "mem": 2646,
      "zaczyna": 2647,
      "lubi": 2648,
      "pej": 2649,
      "bel": 2650,
      "trzeć": 2651,
      "Przecie": 2652,
      "funk": 2653,
      "Rozdział": 2654,
      "Są": 2655,
      "lna": 2656,
      "spół": 2657,
      "niezmie": 2658,
      "nat": 2659,
      "poza": 2660,
      "boż": 2661,
      "sali": 2662,
      "skę": 2663,
      "posła": 2664,
      "dziła": 2665,
      "tury": 2666,
      "Radziwił": 2667,
      "han": 2668,
      "tkiem": 2669,
      "zac": 2670,
      "Trzeba": 2671,
      "pieniądze": 2672,
      "pytała": 2673,
      "przyjdzie": 2674,
      "Ach": 2675,
      "pta": 2676,
      "sny": 2677,
      "bur": 2678,
      "Każ": 2679,
      "źni": 2680,
      "leka": 2681,
      "piecho": 2682,
      "nicja": 2683,
      "stąpił": 2684,
      "wrócić": 2685,
      "dłuż": 2686,
      "Jakoż": 2687,
      "twój": 2688,
      "cicho": 2689,
      "tygo": 2690,
      "Pani": 2691,
      "rozkaz": 2692,
      "produ": 2693,
      "chodziło": 2694,
      "zrobić": 2695,
      "rozumiał": 2696,
      "Sły": 2697,
      "niosła": 2698,
      "Mam": 2699,
      "Pre": 2700,
      "zada": 2701,
      "moją": 2702,
      "broni": 2703,
      "gen": 2704,
      "stwem": 2705,
      "ciół": 2706,
      "byle": 2707,
      "bij": 2708,
      "wolno": 2709,
      "Bie": 2710,
      "naszej": 2711,
      "sną": 2712,
      "nosił": 2713,
      "mier": 2714,
      "tychczas": 2715,
      "chcąc": 2716,
      "tol": 2717,
      "odwie": 2718,
      "miesz": 2719,
      "przynajmniej": 2720,
      "san": 2721,
      "żyli": 2722,
      "żywo": 2723,
      "wojen": 2724,
      "hetman": 2725,
      "powtarza": 2726,
      "nieba": 2727,
      "stów": 2728,
      "tale": 2729,
      "żela": 2730,
      "Rzy": 2731,
      "poczy": 2732,
      "hy": 2733,
      "chała": 2734,
      "miasto": 2735,
      "stronie": 2736,
      "trudno": 2737,
      "Wokulskiego": 2738,
      "pisał": 2739,
      "opa": 2740,
      "szto": 2741,
      "wierz": 2742,
      "dzier": 2743,
      "przer": 2744,
      "mieniem": 2745,
      "sprawy": 2746,
      "nazwi": 2747,
      "30": 2748,
      "tnych": 2749,
      "nieu": 2750,
      "każe": 2751,
      "przyjaciół": 2752,
      "chle": 2753,
      "kiedyś": 2754,
      "przera": 2755,
      "żyw": 2756,
      "różnych": 2757,
      "wieku": 2758,
      "owicz": 2759,
      "książ": 2760,
      "końca": 2761,
      "świątobli": 2762,
      "ogóle": 2763,
      "sro": 2764,
      "rać": 2765,
      "owały": 2766,
      "sej": 2767,
      "równo": 2768,
      "zły": 2769,
      "czci": 2770,
      "kawale": 2771,
      "rycer": 2772,
      "ponieważ": 2773,
      "źnie": 2774,
      "art": 2775,
      "12": 2776,
      "zapom": 2777,
      "mając": 2778,
      "stanął": 2779,
      "niami": 2780,
      "stytu": 2781,
      "moich": 2782,
      "arty": 2783,
      "odzy": 2784,
      "sługi": 2785,
      "nione": 2786,
      "wszedł": 2787,
      "mogły": 2788,
      "długie": 2789,
      "Krzyża": 2790,
      "zga": 2791,
      "niby": 2792,
      "kolo": 2793,
      "staje": 2794,
      "bierze": 2795,
      "zdrowie": 2796,
      "oby": 2797,
      "wano": 2798,
      "mieście": 2799,
      "przyczy": 2800,
      "rum": 2801,
      "pieniędzy": 2802,
      "nóg": 2803,
      "zakoń": 2804,
      "wodę": 2805,
      "bom": 2806,
      "gwał": 2807,
      "łała": 2808,
      "innym": 2809,
      "okrzy": 2810,
      "FA": 2811,
      "Or": 2812,
      "wyzna": 2813,
      "chaj": 2814,
      "mówią": 2815,
      "zdraj": 2816,
      "wnętrz": 2817,
      "nkę": 2818,
      "chowa": 2819,
      "widząc": 2820,
      "którymi": 2821,
      "suk": 2822,
      "rzekłszy": 2823,
      "Jezu": 2824,
      "znajdzie": 2825,
      "chwycił": 2826,
      ".”": 2827,
      "dowi": 2828,
      "swym": 2829,
      "nieszczę": 2830,
      "lenie": 2831,
      "pać": 2832,
      "rucho": 2833,
      "byłem": 2834,
      "stym": 2835,
      "kroć": 2836,
      "istotnie": 2837,
      "Kra": 2838,
      "ciła": 2839,
      "szyć": 2840,
      "ręki": 2841,
      "pytanie": 2842,
      "Proszę": 2843,
      "wtrą": 2844,
      "śmiał": 2845,
      "nor": 2846,
      "zostały": 2847,
      "nięte": 2848,
      "Jednak": 2849,
      "Ga": 2850,
      "dzisiaj": 2851,
      "laty": 2852,
      "muszę": 2853,
      "siedział": 2854,
      "Nagle": 2855,
      "straszli": 2856,
      "ministra": 2857,
      "ńczy": 2858,
      "rzec": 2859,
      "ręka": 2860,
      "niezmier": 2861,
      "Eu": 2862,
      "bru": 2863,
      "ńcy": 2864,
      "Komi": 2865,
      "godziny": 2866,
      "cierpli": 2867,
      "IE": 2868,
      "fra": 2869,
      "rodza": 2870,
      "panny": 2871,
      "tęsk": 2872,
      "środku": 2873,
      "opowiada": 2874,
      "naszego": 2875,
      "rzyła": 2876,
      "pełni": 2877,
      "Basia": 2878,
      "opi": 2879,
      "zów": 2880,
      "nadz": 2881,
      "przestrze": 2882,
      "obli": 2883,
      "Nawet": 2884,
      "bliż": 2885,
      "powinien": 2886,
      "prób": 2887,
      "zasta": 2888,
      "sunął": 2889,
      "dziesięć": 2890,
      "glądał": 2891,
      "rt": 2892,
      "nica": 2893,
      "tuż": 2894,
      "słysz": 2895,
      "powro": 2896,
      "wolna": 2897,
      "okoli": 2898,
      "nowych": 2899,
      "niena": 2900,
      "polu": 2901,
      "jakich": 2902,
      "prasza": 2903,
      "sur": 2904,
      ".,": 2905,
      "Ła": 2906,
      "”,": 2907,
      "pogo": 2908,
      "zwyczaj": 2909,
      "bów": 2910,
      "osie": 2911,
      "tobą": 2912,
      "wiedzieć": 2913,
      "gier": 2914,
      "prowadza": 2915,
      "niedo": 2916,
      "wienie": 2917,
      "kuje": 2918,
      "znacznie": 2919,
      "ogie": 2920,
      "Tutmo": 2921,
      "Dziś": 2922,
      "Myś": 2923,
      "Czarniec": 2924,
      "Tutmozi": 2925,
      "ocze": 2926,
      "cent": 2927,
      "ruch": 2928,
      "szer": 2929,
      "powtórzył": 2930,
      "sti": 2931,
      "waj": 2932,
      "proc": 2933,
      "ogra": 2934,
      "wcześniej": 2935,
      "okrę": 2936,
      "słysze": 2937,
      "20": 2938,
      "Kali": 2939,
      "ledwie": 2940,
      "żyje": 2941,
      "spokój": 2942,
      "gdzieś": 2943,
      "samej": 2944,
      "zmę": 2945,
      "wienia": 2946,
      "ustawy": 2947,
      "uczynił": 2948,
      "żołnierze": 2949,
      "ponu": 2950,
      "wają": 2951,
      "rej": 2952,
      "miest": 2953,
      "ban": 2954,
      "najwyż": 2955,
      "szepnął": 2956,
      "Aż": 2957,
      "bądź": 2958,
      "szczu": 2959,
      "bada": 2960,
      "dobra": 2961,
      "nij": 2962,
      "stara": 2963,
      "wese": 2964,
      "wszę": 2965,
      "dzał": 2966,
      "kana": 2967,
      "wich": 2968,
      "któw": 2969,
      "więzie": 2970,
      "myśleć": 2971,
      "pów": 2972,
      "żół": 2973,
      "piec": 2974,
      "duch": 2975,
      "skle": 2976,
      "skoro": 2977,
      "wstrzy": 2978,
      "pola": 2979,
      "jazd": 2980,
      "włosy": 2981,
      "Ket": 2982,
      "panią": 2983,
      "czyło": 2984,
      "odu": 2985,
      "szek": 2986,
      "rozum": 2987,
      "zimie": 2988,
      "prowadzo": 2989,
      "księży": 2990,
      "Kry": 2991,
      "Stra": 2992,
      "dotychczas": 2993,
      "rubli": 2994,
      "drob": 2995,
      "chłopa": 2996,
      "waszmości": 2997,
      "Sej": 2998,
      "fał": 2999,
      "czwar": 3000,
      "tali": 3001,
      "wysta": 3002,
      "żal": 3003,
      "uczyni": 3004,
      "ryta": 3005,
      "mer": 3006,
      "żaden": 3007,
      "wład": 3008,
      "ciąga": 3009,
      "mentu": 3010,
      "kroków": 3011,
      "Ketlin": 3012,
      "niewia": 3013,
      "niejszych": 3014,
      "wojna": 3015,
      "chciała": 3016,
      "szukać": 3017,
      "słońce": 3018,
      "har": 3019,
      "us": 3020,
      "rom": 3021,
      "wyczaj": 3022,
      "ton": 3023,
      "wien": 3024,
      "drzewa": 3025,
      "modli": 3026,
      "pomocy": 3027,
      "dry": 3028,
      "idą": 3029,
      "oz": 3030,
      "osoby": 3031,
      "niki": 3032,
      "dzian": 3033,
      "ody": 3034,
      "jęcia": 3035,
      "wielka": 3036,
      "sprzeda": 3037,
      "podróż": 3038,
      "mała": 3039,
      "nastu": 3040,
      "kot": 3041,
      "widzieć": 3042,
      "odkry": 3043,
      "policja": 3044,
      "Dlaczego": 3045,
      "III": 3046,
      "Choć": 3047,
      "wskiego": 3048,
      "racji": 3049,
      "zakła": 3050,
      "tyw": 3051,
      "wielkiego": 3052,
      "twoje": 3053,
      "drugą": 3054,
      "fun": 3055,
      "rzała": 3056,
      "nienie": 3057,
      "cznik": 3058,
      "przygotowa": 3059,
      "bara": 3060,
      "kapłan": 3061,
      "wsi": 3062,
      "wierzy": 3063,
      "bole": 3064,
      "syna": 3065,
      "wkrótce": 3066,
      "chcieli": 3067,
      "posa": 3068,
      "gosła": 3069,
      "waść": 3070,
      "regu": 3071,
      "rusza": 3072,
      "Poli": 3073,
      "pójdzie": 3074,
      "chód": 3075,
      "kasz": 3076,
      "lami": 3077,
      "oddział": 3078,
      "syj": 3079,
      "ozna": 3080,
      "cen": 3081,
      "jeste": 3082,
      "marszał": 3083,
      "zbroj": 3084,
      "US": 3085,
      "ach": 3086,
      "psy": 3087,
      "cel": 3088,
      "pija": 3089,
      "nus": 3090,
      "związa": 3091,
      "ciało": 3092,
      "bili": 3093,
      "wielkiej": 3094,
      "wojsko": 3095,
      "pierwszym": 3096,
      "kcji": 3097,
      "Była": 3098,
      "Chmielnicki": 3099,
      "ogień": 3100,
      "fran": 3101,
      "osa": 3102,
      "zwróci": 3103,
      "posiada": 3104,
      "dosko": 3105,
      "wykona": 3106,
      "pracu": 3107,
      "najbardziej": 3108,
      "ofia": 3109,
      "ofice": 3110,
      "przedsię": 3111,
      "OR": 3112,
      "ckim": 3113,
      "oświad": 3114,
      "owska": 3115,
      "zapo": 3116,
      "jach": 3117,
      "celu": 3118,
      "zrobił": 3119,
      "leni": 3120,
      "wala": 3121,
      "wysła": 3122,
      "regi": 3123,
      "rój": 3124,
      "meryka": 3125,
      "możesz": 3126,
      "Było": 3127,
      "NA": 3128,
      "UST": 3129,
      "przezna": 3130,
      "bogów": 3131,
      "stole": 3132,
      "chodu": 3133,
      "dziesięciu": 3134,
      "prywa": 3135,
      "mii": 3136,
      "wizy": 3137,
      "wając": 3138,
      "słychać": 3139,
      "kościo": 3140,
      "Czę": 3141,
      "Bogusław": 3142,
      "znaleźć": 3143,
      "częściej": 3144,
      "wst": 3145,
      "nieraz": 3146,
      "spotk": 3147,
      "Wówczas": 3148,
      "nkiem": 3149,
      "spad": 3150,
      "mocno": 3151,
      "krwa": 3152,
      "Warszawie": 3153,
      "FAUST": 3154,
      "Zresztą": 3155,
      "ozwał": 3156,
      "wymi": 3157,
      "bor": 3158,
      "dawna": 3159,
      "Wszyscy": 3160,
      "patrząc": 3161,
      "znik": 3162,
      "nauczy": 3163,
      "ram": 3164,
      "wolę": 3165,
      "ryj": 3166,
      "stych": 3167,
      "Chy": 3168,
      "zostało": 3169,
      "strzela": 3170,
      "miłosier": 3171,
      "oficer": 3172,
      "szlachta": 3173,
      "niemal": 3174,
      "szki": 3175,
      "nikogo": 3176,
      "noszą": 3177,
      "dziel": 3178,
      "byłby": 3179,
      "stąpić": 3180,
      "ota": 3181,
      "tków": 3182,
      "wprost": 3183,
      "czemu": 3184,
      "poży": 3185,
      "stw": 3186,
      "dzież": 3187,
      "trzeci": 3188,
      "godzin": 3189,
      "ofiar": 3190,
      "błą": 3191,
      "hor": 3192,
      "izby": 3193,
      "stali": 3194,
      "wojewódz": 3195,
      "wybor": 3196,
      "Piotr": 3197,
      "tną": 3198,
      "trzą": 3199,
      "wpadł": 3200,
      "tz": 3201,
      "stąd": 3202,
      "papie": 3203,
      "wen": 3204,
      "zek": 3205,
      "obaj": 3206,
      "wiony": 3207,
      "jakaś": 3208,
      "Dziękuję": 3209,
      "kru": 3210,
      "zanie": 3211,
      "kierow": 3212,
      "rządu": 3213,
      "Stani": 3214,
      "drugim": 3215,
      "ml": 3216,
      "dent": 3217,
      "eg": 3218,
      "wście": 3219,
      "łka": 3220,
      "leżą": 3221,
      "syć": 3222,
      "strach": 3223,
      "Kazimie": 3224,
      "Bra": 3225,
      "kała": 3226,
      "zje": 3227,
      "pomyśl": 3228,
      "miły": 3229,
      "któremu": 3230,
      "uwagę": 3231,
      "zdoby": 3232,
      "rękoma": 3233,
      "ufa": 3234,
      "naszym": 3235,
      "niczego": 3236,
      "koro": 3237,
      "kony": 3238,
      "wyro": 3239,
      "wystar": 3240,
      "mień": 3241,
      "bogi": 3242,
      "trak": 3243,
      "stety": 3244,
      "dłużej": 3245,
      "kobieta": 3246,
      "wyżej": 3247,
      "baron": 3248,
      "choro": 3249,
      "zyska": 3250,
      "trzydzie": 3251,
      "drugiego": 3252,
      "MA": 3253,
      "napa": 3254,
      "niała": 3255,
      "gotów": 3256,
      "ojczyz": 3257,
      "uroczy": 3258,
      "łowa": 3259,
      "wina": 3260,
      "księż": 3261,
      "dował": 3262,
      "nkach": 3263,
      "twór": 3264,
      "pas": 3265,
      "pach": 3266,
      "wieści": 3267,
      "charak": 3268,
      "zuje": 3269,
      "ktora": 3270,
      "większo": 3271,
      "nara": 3272,
      "mawia": 3273,
      "zostać": 3274,
      "głośno": 3275,
      "Sto": 3276,
      "niebezpiecze": 3277,
      "kimi": 3278,
      "ciele": 3279,
      "Babi": 3280,
      "polskich": 3281,
      "mn": 3282,
      "leż": 3283,
      "dopodob": 3284,
      "dzony": 3285,
      "Mini": 3286,
      "at": 3287,
      "fry": 3288,
      "kować": 3289,
      "nny": 3290,
      "niczym": 3291,
      "owało": 3292,
      "proś": 3293,
      "onu": 3294,
      "męża": 3295,
      "TA": 3296,
      "rki": 3297,
      "łzy": 3298,
      "czli": 3299,
      "szpita": 3300,
      "poczu": 3301,
      "komo": 3302,
      "wyciąg": 3303,
      "latach": 3304,
      "prawy": 3305,
      "mówili": 3306,
      "trzymy": 3307,
      "czonych": 3308,
      "dźmi": 3309,
      "Musi": 3310,
      "16": 3311,
      "ener": 3312,
      "krą": 3313,
      "dzieścia": 3314,
      "mocy": 3315,
      "cenia": 3316,
      "pisy": 3317,
      "znam": 3318,
      "wojnę": 3319,
      "Rzecz": 3320,
      "sprawę": 3321,
      "brzegu": 3322,
      "dba": 3323,
      "wrza": 3324,
      "źli": 3325,
      "połą": 3326,
      "bami": 3327,
      "Ob": 3328,
      "Wą": 3329,
      "Wreszcie": 3330,
      "pojedy": 3331,
      "Nad": 3332,
      "kowski": 3333,
      "rop": 3334,
      "temat": 3335,
      "reali": 3336,
      "czekać": 3337,
      "sześć": 3338,
      "jednocześnie": 3339,
      "Jurand": 3340,
      "czność": 3341,
      "stwier": 3342,
      "zawi": 3343,
      "ciej": 3344,
      "przypa": 3345,
      "owymi": 3346,
      "słuchał": 3347,
      "Dopiero": 3348,
      "kłopo": 3349,
      "istnie": 3350,
      "Osta": 3351,
      "Sze": 3352,
      "ludźmi": 3353,
      "wiatr": 3354,
      "jakoś": 3355,
      "głębi": 3356,
      "cno": 3357,
      "obywa": 3358,
      "towi": 3359,
      "byśmy": 3360,
      "wedle": 3361,
      "powiedziała": 3362,
      "drzwia": 3363,
      "ostrze": 3364,
      "wrze": 3365,
      "tytu": 3366,
      "bok": 3367,
      "tura": 3368,
      "arcy": 3369,
      "słońca": 3370,
      "Zbyszka": 3371,
      "pisać": 3372,
      "Prawda": 3373,
      "Będzie": 3374,
      "pem": 3375,
      "ubra": 3376,
      "zał": 3377,
      "zauwa": 3378,
      "przyci": 3379,
      "muszą": 3380,
      "słysza": 3381,
      "Wiem": 3382,
      "minister": 3383,
      "Szu": 3384,
      "lniej": 3385,
      "nowego": 3386,
      "len": 3387,
      "dysku": 3388,
      "przywi": 3389,
      "duży": 3390,
      "stego": 3391,
      "droga": 3392,
      "Warszawy": 3393,
      "spostrzegł": 3394,
      "nadzwyczaj": 3395,
      "dają": 3396,
      "bieg": 3397,
      "innymi": 3398,
      "budy": 3399,
      "złotych": 3400,
      "świątyni": 3401,
      "Fenicja": 3402,
      "prezyden": 3403,
      "Tadeusz": 3404,
      "łowi": 3405,
      "łaska": 3406,
      "odle": 3407,
      "miesza": 3408,
      "tuje": 3409,
      "Pamię": 3410,
      "haj": 3411,
      "żadnej": 3412,
      "mować": 3413,
      "spę": 3414,
      "wołał": 3415,
      "przewi": 3416,
      "skło": 3417,
      "syła": 3418,
      "Justy": 3419,
      "sprawa": 3420,
      "rycerza": 3421,
      "zaledwie": 3422,
      "Jestem": 3423,
      "mąż": 3424,
      "gospoda": 3425,
      "rozmawia": 3426,
      "Oleń": 3427,
      "zbo": 3428,
      "pobli": 3429,
      "przypomina": 3430,
      "kapłani": 3431,
      "kształt": 3432,
      "lka": 3433,
      "namiest": 3434,
      "czeń": 3435,
      "czele": 3436,
      "ścić": 3437,
      "byłoby": 3438,
      "Chilo": 3439,
      "wielkich": 3440,
      "finans": 3441,
      "ata": 3442,
      "swa": 3443,
      "uzna": 3444,
      "niesi": 3445,
      "wane": 3446,
      "przeszło": 3447,
      "dzeniu": 3448,
      "Bardzo": 3449,
      "Igna": 3450,
      "Ona": 3451,
      "łow": 3452,
      "wygląda": 3453,
      "czyta": 3454,
      "lada": 3455,
      "matka": 3456,
      "nicą": 3457,
      "siach": 3458,
      "miałem": 3459,
      "oczywiście": 3460,
      "wspani": 3461,
      "dwadzieścia": 3462,
      "poznał": 3463,
      "skarb": 3464,
      "włó": 3465,
      "łta": 3466,
      "posą": 3467,
      "cju": 3468,
      "zdawało": 3469,
      "czności": 3470,
      "strza": 3471,
      "dyna": 3472,
      "zielo": 3473,
      "pytać": 3474,
      "szlachty": 3475,
      "Dy": 3476,
      "rana": 3477,
      "cili": 3478,
      "czący": 3479,
      "twarzą": 3480,
      "rować": 3481,
      "Jakże": 3482,
      "Oczy": 3483,
      "np": 3484,
      "psu": 3485,
      "upły": 3486,
      "rzo": 3487,
      "nin": 3488,
      "tea": 3489,
      "reli": 3490,
      "odpowiada": 3491,
      "gii": 3492,
      "lon": 3493,
      "pomocą": 3494,
      "materi": 3495,
      "niemu": 3496,
      "inter": 3497,
      "los": 3498,
      "broń": 3499,
      "Żeby": 3500,
      "ńską": 3501,
      "powszech": 3502,
      "czyły": 3503,
      "bija": 3504,
      "panów": 3505,
      "okrop": 3506,
      "żadnych": 3507,
      "błyska": 3508,
      "wza": 3509,
      "strzał": 3510,
      "zadowo": 3511,
      "przysię": 3512,
      "każdej": 3513,
      "Dlatego": 3514,
      "zbliża": 3515,
      "fan": 3516,
      "gla": 3517,
      "rzeki": 3518,
      "wice": 3519,
      "mać": 3520,
      "czami": 3521,
      "pewien": 3522,
      "dzać": 3523,
      "Kmicica": 3524,
      "zwierzę": 3525,
      "radości": 3526,
      "chorągwi": 3527,
      "kniazi": 3528,
      "50": 3529,
      "Lon": 3530,
      "opuści": 3531,
      "potwier": 3532,
      "zatem": 3533,
      "puszcz": 3534,
      "świado": 3535,
      "krai": 3536,
      "Sapie": 3537,
      "błogosła": 3538,
      "uszy": 3539,
      "uważ": 3540,
      "czter": 3541,
      "szony": 3542,
      "RO": 3543,
      "Ur": 3544,
      "Zna": 3545,
      "nci": 3546,
      "snu": 3547,
      "ulicy": 3548,
      "wki": 3549,
      "zała": 3550,
      "łóż": 3551,
      "stki": 3552,
      "leś": 3553,
      "patrzeć": 3554,
      "dzisz": 3555,
      "przyby": 3556,
      "prakty": 3557,
      "demo": 3558,
      "będziemy": 3559,
      "pamięta": 3560,
      "zaczęła": 3561,
      "starego": 3562,
      "tli": 3563,
      "zrozumie": 3564,
      "Łu": 3565,
      "nade": 3566,
      "zabra": 3567,
      "wyją": 3568,
      "wyraz": 3569,
      "cenie": 3570,
      "czes": 3571,
      "baro": 3572,
      "bisku": 3573,
      "czoło": 3574,
      "całego": 3575,
      "komna": 3576,
      "jedynie": 3577,
      "przedstawi": 3578,
      "tysiące": 3579,
      "Hele": 3580,
      "okiem": 3581,
      "rzeź": 3582,
      "miny": 3583,
      "duszę": 3584,
      "Zali": 3585,
      "dniach": 3586,
      "Zie": 3587,
      "oca": 3588,
      "umar": 3589,
      "poseł": 3590,
      "dokona": 3591,
      "wypa": 3592,
      "czeć": 3593,
      "biega": 3594,
      "niejsza": 3595,
      "podobne": 3596,
      "poznać": 3597,
      "odezwał": 3598,
      "ciężko": 3599,
      "faraona": 3600,
      "plu": 3601,
      "sor": 3602,
      "podzie": 3603,
      "lika": 3604,
      "wany": 3605,
      "szenie": 3606,
      "skry": 3607,
      "gdyś": 3608,
      "dzięki": 3609,
      "potrzebu": 3610,
      "hand": 3611,
      "Księ": 3612,
      "gre": 3613,
      "urzą": 3614,
      "wzgó": 3615,
      "czona": 3616,
      "uczynić": 3617,
      "kilkanaście": 3618,
      "Zbysz": 3619,
      "Daj": 3620,
      "XV": 3621,
      "dyre": 3622,
      "wrót": 3623,
      "Mef": 3624,
      "widziałem": 3625,
      "lność": 3626,
      "okry": 3627,
      "nięty": 3628,
      "ściany": 3629,
      "własną": 3630,
      "szlachcic": 3631,
      "hra": 3632,
      "pomiędzy": 3633,
      "wyra": 3634,
      "lako": 3635,
      "owości": 3636,
      "krotnie": 3637,
      "ludziom": 3638,
      "zależ": 3639,
      "Oni": 3640,
      "Sza": 3641,
      "die": 3642,
      "jo": 3643,
      "zra": 3644,
      "rano": 3645,
      "dusza": 3646,
      "obowiąz": 3647,
      "wątpli": 3648,
      "ostroż": 3649,
      "Gre": 3650,
      "jów": 3651,
      "oskar": 3652,
      "pog": 3653,
      "nera": 3654,
      "czyzna": 3655,
      "ostatni": 3656,
      "ludzkie": 3657,
      "wtrącił": 3658,
      "17": 3659,
      "ule": 3660,
      "wną": 3661,
      "wieść": 3662,
      "cony": 3663,
      "Szcze": 3664,
      "twiej": 3665,
      "nadzieję": 3666,
      "rozmowy": 3667,
      "Albo": 3668,
      "Tutmozis": 3669,
      "spó": 3670,
      "niać": 3671,
      "weź": 3672,
      "głem": 3673,
      "słuchać": 3674,
      "kapłanów": 3675,
      "wołać": 3676,
      "Bez": 3677,
      "nieprzyjaciel": 3678,
      "Bohun": 3679,
      "ochro": 3680,
      "złe": 3681,
      "śro": 3682,
      "poga": 3683,
      "przyzna": 3684,
      "Witol": 3685,
      "jakąś": 3686,
      "cjona": 3687,
      "SL": 3688,
      "bóg": 3689,
      "sch": 3690,
      "odwa": 3691,
      "cześć": 3692,
      "pragnie": 3693,
      "oglą": 3694,
      "wóz": 3695,
      "Nikt": 3696,
      "Rzecki": 3697,
      "wojewoda": 3698,
      "kobiet": 3699,
      "wysoko": 3700,
      "roli": 3701,
      "tera": 3702,
      "puszczo": 3703,
      "okreś": 3704,
      "ami": 3705,
      "ctwa": 3706,
      "rka": 3707,
      "trów": 3708,
      "siej": 3709,
      "Następ": 3710,
      "Jana": 3711,
      "wzrok": 3712,
      "Szwedów": 3713,
      "umiał": 3714,
      "nicz": 3715,
      "przypom": 3716,
      "proble": 3717,
      "powietrze": 3718,
      "prawdopodob": 3719,
      "wojow": 3720,
      "strzel": 3721,
      "milczeniu": 3722,
      "dziewczyna": 3723,
      "wesoło": 3724,
      "ide": 3725,
      "sznie": 3726,
      "jazdy": 3727,
      "cof": 3728,
      "wałem": 3729,
      "Mille": 3730,
      "młod": 3731,
      "daleka": 3732,
      "dostać": 3733,
      "kazać": 3734,
      "Pru": 3735,
      "smo": 3736,
      "tnym": 3737,
      "niespo": 3738,
      "cztere": 3739,
      "gon": 3740,
      "myka": 3741,
      "powiedz": 3742,
      "niom": 3743,
      "szlachet": 3744,
      "rozmai": 3745,
      "białe": 3746,
      "Chyba": 3747,
      "dka": 3748,
      "przyjechał": 3749,
      "Tego": 3750,
      "namio": 3751,
      "uderzył": 3752,
      "natura": 3753,
      "ctwo": 3754,
      "tko": 3755,
      "tło": 3756,
      "rośli": 3757,
      "rób": 3758,
      "skrę": 3759,
      "pun": 3760,
      "Jeden": 3761,
      "wszystkiego": 3762,
      "ziemia": 3763,
      "jednakże": 3764,
      "odpowiedziała": 3765,
      "własne": 3766,
      "rodu": 3767,
      "zatrzyma": 3768,
      "siłą": 3769,
      "bach": 3770,
      "cone": 3771,
      "mej": 3772,
      "któren": 3773,
      "mówisz": 3774,
      "Char": 3775,
      "żąda": 3776,
      "drzew": 3777,
      "Pentu": 3778,
      "światło": 3779,
      "nerał": 3780,
      "wziąć": 3781,
      "zbliżył": 3782,
      "sprzę": 3783,
      "dwudzie": 3784,
      "uczest": 3785,
      "Hrabia": 3786,
      "dną": 3787,
      "owu": 3788,
      "wymaga": 3789,
      "roze": 3790,
      "ognia": 3791,
      "samą": 3792,
      "Zyg": 3793,
      "Przecież": 3794,
      "cało": 3795,
      "dły": 3796,
      "jał": 3797,
      "knie": 3798,
      "owaniu": 3799,
      "czap": 3800,
      "prag": 3801,
      "proku": 3802,
      "każdego": 3803,
      "błęki": 3804,
      "oczeki": 3805,
      "!!": 3806,
      "utwo": 3807,
      "zakon": 3808,
      "wiej": 3809,
      "własnej": 3810,
      "dowód": 3811,
      "bał": 3812,
      "tkę": 3813,
      "nasza": 3814,
      "zakrzyknął": 3815,
      "wykorzy": 3816,
      "wielko": 3817,
      "przychodzi": 3818,
      "tii": 3819,
      "Ber": 3820,
      "Łę": 3821,
      "kono": 3822,
      "kawał": 3823,
      "wyłą": 3824,
      "oddał": 3825,
      "siu": 3826,
      "służby": 3827,
      "Sędzia": 3828,
      "Rzę": 3829,
      "pocz": 3830,
      "roni": 3831,
      "wino": 3832,
      "owana": 3833,
      "szenia": 3834,
      "wek": 3835,
      "duże": 3836,
      "prosił": 3837,
      "niona": 3838,
      "owałem": 3839,
      "zapewne": 3840,
      "francu": 3841,
      "Pow": 3842,
      "opła": 3843,
      "zbiera": 3844,
      "niezna": 3845,
      "dostał": 3846,
      "inwe": 3847,
      "Zaraz": 3848,
      "party": 3849,
      "drogą": 3850,
      "powsta": 3851,
      "Tele": 3852,
      "aniżeli": 3853,
      "mógłby": 3854,
      "zawołała": 3855,
      "rozumiem": 3856,
      "wieczorem": 3857,
      "brzu": 3858,
      "żek": 3859,
      "działy": 3860,
      "prawia": 3861,
      "cjach": 3862,
      "pewne": 3863,
      "hań": 3864,
      "ściach": 3865,
      "stępuje": 3866,
      "rozmowę": 3867,
      "wieczór": 3868,
      "Ketling": 3869,
      "Spy": 3870,
      "tności": 3871,
      "zdecy": 3872,
      "posto": 3873,
      "popraw": 3874,
      "rzyły": 3875,
      "żywszy": 3876,
      "zebra": 3877,
      "podda": 3878,
      "krzyża": 3879,
      "dźwie": 3880,
      "różne": 3881,
      "śmiertel": 3882,
      "Często": 3883,
      "konu": 3884,
      "rzyło": 3885,
      "wasze": 3886,
      "nosząc": 3887,
      "czela": 3888,
      "obja": 3889,
      "przytom": 3890,
      "sar": 3891,
      "ducha": 3892,
      "dzone": 3893,
      "wschod": 3894,
      "państw": 3895,
      "grozi": 3896,
      "Now": 3897,
      "uch": 3898,
      "dotk": 3899,
      "podło": 3900,
      "Stary": 3901,
      "prezes": 3902,
      "cyjne": 3903,
      "mężczyz": 3904,
      "budże": 3905,
      "Dru": 3906,
      "dosyć": 3907,
      "prote": 3908,
      "zdą": 3909,
      "Pana": 3910,
      "robił": 3911,
      "dii": 3912,
      "podobny": 3913,
      "Wołodyjowskiego": 3914,
      "Wtedy": 3915,
      "zachod": 3916,
      "wodą": 3917,
      "wzbu": 3918,
      "dziano": 3919,
      "dworze": 3920,
      "rzeczywi": 3921,
      "nosić": 3922,
      "widzisz": 3923,
      "zobaczy": 3924,
      "14": 3925,
      "poe": 3926,
      "rada": 3927,
      "koły": 3928,
      "dole": 3929,
      "łach": 3930,
      "biegły": 3931,
      "budowa": 3932,
      "mieszkania": 3933,
      "IA": 3934,
      "Mię": 3935,
      "ab": 3936,
      "her": 3937,
      "oli": 3938,
      "chętnie": 3939,
      "Nero": 3940,
      "Każdy": 3941,
      "gowie": 3942,
      "gnąć": 3943,
      "zde": 3944,
      "ćwi": 3945,
      "niedzie": 3946,
      "poświę": 3947,
      "rację": 3948,
      "leży": 3949,
      "łatwiej": 3950,
      "tora": 3951,
      "czasy": 3952,
      "fika": 3953,
      "możemy": 3954,
      "ostatnich": 3955,
      "Szwedzi": 3956,
      "mruknął": 3957,
      "Oba": 3958,
      "Ocho": 3959,
      "Par": 3960,
      "Tar": 3961,
      "kwest": 3962,
      "lno": 3963,
      "osła": 3964,
      "koście": 3965,
      "wicza": 3966,
      "owanych": 3967,
      "pytania": 3968,
      "polskiego": 3969,
      "postać": 3970,
      "wspomnie": 3971,
      "przewodni": 3972,
      "13": 3973,
      "Wło": 3974,
      "uspoko": 3975,
      "narze": 3976,
      "pożegna": 3977,
      "zasłu": 3978,
      "wycie": 3979,
      "ryk": 3980,
      "pracę": 3981,
      "szan": 3982,
      "podró": 3983,
      "bej": 3984,
      "Jam": 3985,
      "bliżej": 3986,
      "Rozu": 3987,
      "dwaj": 3988,
      "gel": 3989,
      "Py": 3990,
      "Wszak": 3991,
      "gni": 3992,
      "kwie": 3993,
      "lnik": 3994,
      "koza": 3995,
      "państwo": 3996,
      "jutrz": 3997,
      "owiej": 3998,
      "słow": 3999,
      "Alek": 4000,
      "Kości": 4001,
      "uczci": 4002,
      "sytuacji": 4003,
      "śred": 4004,
      "Jó": 4005,
      "niewin": 4006,
      "podzi": 4007,
      "czyk": 4008,
      "wez": 4009,
      "chory": 4010,
      "ręcz": 4011,
      "czasów": 4012,
      "większa": 4013,
      "zwykł": 4014,
      "wione": 4015,
      "dwor": 4016,
      "minut": 4017,
      "cezara": 4018,
      "Mnie": 4019,
      "Mój": 4020,
      "pienia": 4021,
      "ludu": 4022,
      "rozwi": 4023,
      "wiary": 4024,
      "mentów": 4025,
      "głosu": 4026,
      "działem": 4027,
      "Bogda": 4028,
      "oku": 4029,
      "tować": 4030,
      "rzch": 4031,
      "nierucho": 4032,
      "czni": 4033,
      "koniu": 4034,
      "siedzą": 4035,
      "Chło": 4036,
      "okna": 4037,
      "Patrz": 4038,
      "wojnie": 4039,
      "Panna": 4040,
      "wrażenie": 4041,
      "wydaje": 4042,
      "waszmość": 4043,
      "uf": 4044,
      "Świę": 4045,
      "cina": 4046,
      "czynić": 4047,
      "cep": 4048,
      "gina": 4049,
      "Masz": 4050,
      "Jagienka": 4051,
      "ograni": 4052,
      "tle": 4053,
      "zgroma": 4054,
      "kali": 4055,
      "teli": 4056,
      "waniu": 4057,
      "ostate": 4058,
      "Hej": 4059,
      "drew": 4060,
      "egip": 4061,
      "fon": 4062,
      "postępo": 4063,
      "radość": 4064,
      "zarówno": 4065,
      "tości": 4066,
      "deł": 4067,
      "giew": 4068,
      "Pary": 4069,
      "Mości": 4070,
      "Winicjusza": 4071,
      "wartości": 4072,
      "dotyczą": 4073,
      "Herhor": 4074,
      "CH": 4075,
      "Czu": 4076,
      "lała": 4077,
      "ope": 4078,
      "człek": 4079,
      "żeniem": 4080,
      "tość": 4081,
      "dziewię": 4082,
      "żyły": 4083,
      "rzawszy": 4084,
      "Chciał": 4085,
      "kładnie": 4086,
      "piersiach": 4087,
      "rząt": 4088,
      "Ludzie": 4089,
      "Mówi": 4090,
      "okrutnie": 4091,
      "nienawi": 4092,
      "Dłu": 4093,
      "os": 4094,
      "plo": 4095,
      "un": 4096,
      "jemu": 4097,
      "weł": 4098,
      "Tomasz": 4099,
      "twoja": 4100,
      "godzinę": 4101,
      "wybuch": 4102,
      "przypadku": 4103,
      "lie": 4104,
      "nnych": 4105,
      "pośpie": 4106,
      "zatrzymał": 4107,
      "lau": 4108,
      "czekał": 4109,
      "lum": 4110,
      "sków": 4111,
      "sym": 4112,
      "rzucić": 4113,
      "drago": 4114,
      "roboty": 4115,
      "chorągwie": 4116,
      "Odys": 4117,
      "Czarniecki": 4118,
      "ameryka": 4119,
      "dować": 4120,
      "nazywa": 4121,
      "potrzeba": 4122,
      "roż": 4123,
      "lam": 4124,
      "cofa": 4125,
      "dują": 4126,
      "rycerzy": 4127,
      "cyjnych": 4128,
      "dki": 4129,
      "fal": 4130,
      "owskiej": 4131,
      "miłu": 4132,
      "przyszły": 4133,
      "pyty": 4134,
      "podobna": 4135,
      "żadnego": 4136,
      "uśmiechem": 4137,
      "podoba": 4138,
      "Nowowiej": 4139,
      ".)": 4140,
      "Jo": 4141,
      "nr": 4142,
      "wpad": 4143,
      "ślub": 4144,
      "rachu": 4145,
      "zagro": 4146,
      "tacy": 4147,
      "odej": 4148,
      "dawała": 4149,
      "własnym": 4150,
      "dziecka": 4151,
      "mnó": 4152,
      "bem": 4153,
      "napeł": 4154,
      "poprze": 4155,
      "niów": 4156,
      "przyszła": 4157,
      "mury": 4158,
      "czasach": 4159,
      "zuch": 4160,
      "Powiedz": 4161,
      "dały": 4162,
      "euro": 4163,
      "gnia": 4164,
      "izbie": 4165,
      "rowie": 4166,
      "tował": 4167,
      "zję": 4168,
      "zwraca": 4169,
      "zanim": 4170,
      "wynika": 4171,
      "miarę": 4172,
      "brata": 4173,
      "pełne": 4174,
      "sztur": 4175,
      "Sopli": 4176,
      "Król": 4177,
      "mln": 4178,
      "?!": 4179,
      "KA": 4180,
      "udało": 4181,
      "zor": 4182,
      "Świa": 4183,
      "pokój": 4184,
      "kape": 4185,
      "szyję": 4186,
      "biało": 4187,
      "bitwy": 4188,
      "owskim": 4189,
      "szuki": 4190,
      "Lud": 4191,
      "osobi": 4192,
      "pierwszego": 4193,
      "Aleksan": 4194,
      "lni": 4195,
      "umil": 4196,
      "posia": 4197,
      "dostrze": 4198,
      "przyro": 4199,
      "mych": 4200,
      "czam": 4201,
      "jakże": 4202,
      "Skrzetuskiego": 4203,
      "wspom": 4204,
      "rzeń": 4205,
      "przeba": 4206,
      "morze": 4207,
      "skra": 4208,
      "myślnie": 4209,
      "Miał": 4210,
      "większy": 4211,
      "zdaje": 4212,
      "rzeczywiście": 4213,
      "zdrowia": 4214,
      "dostojność": 4215,
      "głęboko": 4216,
      "komenda": 4217,
      "poprzednio": 4218,
      "próżno": 4219,
      "rodzaju": 4220,
      "jesteśmy": 4221,
      "Ignacy": 4222,
      "wzajem": 4223,
      "Między": 4224,
      "en": 4225,
      "wskiej": 4226,
      "śka": 4227,
      "poczyna": 4228,
      "liz": 4229,
      "wiedzą": 4230,
      "las": 4231,
      "rego": 4232,
      "rozwiąza": 4233,
      "straż": 4234,
      "mencie": 4235,
      "Sło": 4236,
      "lik": 4237,
      "przykła": 4238,
      "owano": 4239,
      "szef": 4240,
      "stołu": 4241,
      "stycz": 4242,
      "dawniej": 4243,
      "szczęścia": 4244,
      "powiadać": 4245,
      "okolicy": 4246,
      ".:": 4247,
      "Kro": 4248,
      "Tru": 4249,
      "ZA": 4250,
      "sno": 4251,
      "trzu": 4252,
      "usu": 4253,
      "utra": 4254,
      "niepoko": 4255,
      "lip": 4256,
      "lina": 4257,
      "ruchu": 4258,
      "boj": 4259,
      "system": 4260,
      "organiza": 4261,
      "prosić": 4262,
      "Otóż": 4263,
      "postanowił": 4264,
      "Mefres": 4265,
      "wów": 4266,
      "niegdyś": 4267,
      "posu": 4268,
      "pami": 4269,
      "dzisiej": 4270,
      "lasu": 4271,
      "szale": 4272,
      "rękach": 4273,
      "menty": 4274,
      "mieszkańców": 4275,
      "Michale": 4276,
      "elekt": 4277,
      "fy": 4278,
      "nować": 4279,
      "pochod": 4280,
      "powoli": 4281,
      "leci": 4282,
      "dając": 4283,
      "lacji": 4284,
      "według": 4285,
      "głą": 4286,
      "anty": 4287,
      "spać": 4288,
      "obecnie": 4289,
      "kazuje": 4290,
      "związku": 4291,
      "Krze": 4292,
      "PR": 4293,
      "ogło": 4294,
      "umy": 4295,
      "żon": 4296,
      "ciły": 4297,
      "minie": 4298,
      "telu": 4299,
      "wywo": 4300,
      "matki": 4301,
      "stawia": 4302,
      "brat": 4303,
      "part": 4304,
      "małe": 4305,
      "Czech": 4306,
      "Czemu": 4307,
      "wyraźnie": 4308,
      "?”": 4309,
      "son": 4310,
      "rzały": 4311,
      "szta": 4312,
      "tatar": 4313,
      "chodzie": 4314,
      "żonych": 4315,
      "chodziły": 4316,
      "odpowiedź": 4317,
      "pozwala": 4318,
      "Ramze": 4319,
      "Pó": 4320,
      "fer": 4321,
      "sfe": 4322,
      "kam": 4323,
      "kupić": 4324,
      "boku": 4325,
      "dusz": 4326,
      "pewny": 4327,
      "książęca": 4328,
      "ruszyć": 4329,
      "organiz": 4330,
      "Ligia": 4331,
      "słyszawszy": 4332,
      "11": 4333,
      "Anu": 4334,
      "Azja": 4335,
      "Skąd": 4336,
      "imi": 4337,
      "zasło": 4338,
      "ciszy": 4339,
      "przeto": 4340,
      "macie": 4341,
      "sić": 4342,
      "bawi": 4343,
      "skach": 4344,
      "najbliż": 4345,
      "zdro": 4346,
      "myślą": 4347,
      "pozwo": 4348,
      "myślił": 4349,
      "rodziny": 4350,
      "oboje": 4351,
      "procent": 4352,
      "wypadku": 4353,
      "Chrystus": 4354,
      "wszędzie": 4355,
      "lta": 4356,
      "osią": 4357,
      "zajutrz": 4358,
      "wością": 4359,
      "Pozna": 4360,
      "lona": 4361,
      "nictwa": 4362,
      "rzami": 4363,
      "Wil": 4364,
      "sęp": 4365,
      "ujrzał": 4366,
      "żelaz": 4367,
      "Ak": 4368,
      "St": 4369,
      "lec": 4370,
      "dokładnie": 4371,
      "tent": 4372,
      "czytał": 4373,
      "łych": 4374,
      "nięcie": 4375,
      "krzyż": 4376,
      "czegoś": 4377,
      "ostatnie": 4378,
      "zmieni": 4379,
      "kilkunastu": 4380,
      "chorągiew": 4381,
      "wspomina": 4382,
      "Pię": 4383,
      "XI": 4384,
      "imieniu": 4385,
      "kowe": 4386,
      "potra": 4387,
      "wana": 4388,
      "waża": 4389,
      "wieniem": 4390,
      "sekre": 4391,
      "konfe": 4392,
      "policji": 4393,
      "ciemności": 4394,
      "dłoń": 4395,
      "Ligii": 4396,
      "kował": 4397,
      "znie": 4398,
      "niedźwie": 4399,
      "jeść": 4400,
      "miu": 4401,
      "kupi": 4402,
      "życzli": 4403,
      "otworzył": 4404,
      "gorzej": 4405,
      "Mów": 4406,
      "zą": 4407,
      "złego": 4408,
      "naszą": 4409,
      "chowie": 4410,
      "szkie": 4411,
      "zamek": 4412,
      "sieni": 4413,
      "gdybym": 4414,
      "--------": 4415,
      "czterech": 4416,
      "cła": 4417,
      "lów": 4418,
      "wstał": 4419,
      "rab": 4420,
      "miesięcy": 4421,
      "mują": 4422,
      "rumie": 4423,
      "zerwał": 4424,
      "szab": 4425,
      "musiała": 4426,
      "głosów": 4427,
      "forma": 4428,
      "krwią": 4429,
      "głównie": 4430,
      "błaga": 4431,
      "porządku": 4432,
      "osiem": 4433,
      "wnątrz": 4434,
      "hała": 4435,
      "rowe": 4436,
      "leżał": 4437,
      "widziała": 4438,
      "wymie": 4439,
      "wypowie": 4440,
      "lać": 4441,
      "piera": 4442,
      "wewnętrz": 4443,
      "faj": 4444,
      "prowadzą": 4445,
      "człowiekiem": 4446,
      "Tur": 4447,
      "Niechże": 4448,
      "glądać": 4449,
      "telewi": 4450,
      "Właśnie": 4451,
      "yyy": 4452,
      "czterdzie": 4453,
      "sję": 4454,
      "stre": 4455,
      "zali": 4456,
      "jam": 4457,
      "tyki": 4458,
      "kieli": 4459,
      "bit": 4460,
      "prawił": 4461,
      "przedmio": 4462,
      "sług": 4463,
      "kazała": 4464,
      "młodego": 4465,
      "znajduje": 4466,
      "postaci": 4467,
      "Wę": 4468,
      "ke": 4469,
      "paść": 4470,
      "przestęp": 4471,
      "stości": 4472,
      "dłem": 4473,
      "Wia": 4474,
      "ojczy": 4475,
      "tłum": 4476,
      "Mari": 4477,
      "Polska": 4478,
      "kolei": 4479,
      "zobaczyć": 4480,
      "dziennika": 4481,
      "Rzeczpospoli": 4482,
      "25": 4483,
      "Ow": 4484,
      "cką": 4485,
      "cisza": 4486,
      "winy": 4487,
      "łat": 4488,
      "mogłem": 4489,
      "przyjął": 4490,
      "twarze": 4491,
      "większe": 4492,
      "firmy": 4493,
      "Fi": 4494,
      "mowy": 4495,
      "oś": 4496,
      "uzyska": 4497,
      "zwi": 4498,
      "zaga": 4499,
      "zawar": 4500,
      "rzyli": 4501,
      "musie": 4502,
      "rozkazy": 4503,
      "róg": 4504,
      "podnie": 4505,
      "rzach": 4506,
      "stracił": 4507,
      "nięcia": 4508,
      "zwycza": 4509,
      "zwykły": 4510,
      "przeciwko": 4511,
      "zęby": 4512,
      "Ani": 4513,
      "wpół": 4514,
      "nacze": 4515,
      "posł": 4516,
      "pogar": 4517,
      "zać": 4518,
      "letni": 4519,
      "wan": 4520,
      "działo": 4521,
      "prosto": 4522,
      "Nigdy": 4523,
      "chwyta": 4524,
      "oboję": 4525,
      "Miej": 4526,
      "sklepu": 4527,
      "ojczyzny": 4528,
      "nową": 4529,
      "pą": 4530,
      "posłów": 4531,
      "ałe": 4532,
      "dzieży": 4533,
      "pień": 4534,
      "czać": 4535,
      "chodząc": 4536,
      "sklepie": 4537,
      "Pom": 4538,
      "przedtem": 4539,
      "pór": 4540,
      "tamtej": 4541,
      "pięciu": 4542,
      "Raz": 4543,
      "obozu": 4544,
      "srebr": 4545,
      "podróży": 4546,
      "Wal": 4547,
      "zainteres": 4548,
      "damy": 4549,
      "nos": 4550,
      "stanu": 4551,
      "przygot": 4552,
      "cać": 4553,
      "Podob": 4554,
      "lot": 4555,
      "najlepiej": 4556,
      "uśmiech": 4557,
      "Minister": 4558,
      "pobliżu": 4559,
      "Ser": 4560,
      "gr": 4561,
      "upad": 4562,
      "szów": 4563,
      "zakre": 4564,
      "odrzekła": 4565,
      "obia": 4566,
      "ruje": 4567,
      "boi": 4568,
      "lonych": 4569,
      "wzdłuż": 4570,
      "nionych": 4571,
      "pewnością": 4572,
      "chody": 4573,
      "pamięci": 4574,
      "Egiptu": 4575,
      "przedsiębior": 4576,
      "wstrzą": 4577,
      "Hu": 4578,
      "gwa": 4579,
      "domów": 4580,
      "rozkazu": 4581,
      "księciu": 4582,
      "Wasza": 4583,
      "ból": 4584,
      "Wszystkie": 4585,
      "rozległ": 4586,
      "Jezus": 4587,
      "Pój": 4588,
      "rzony": 4589,
      "sznu": 4590,
      "poboż": 4591,
      "ramię": 4592,
      "kata": 4593,
      "cień": 4594,
      "ciela": 4595,
      "siedem": 4596,
      "niejszym": 4597,
      "innej": 4598,
      "metrów": 4599,
      "Stach": 4600,
      "brała": 4601,
      "myślisz": 4602,
      "obozie": 4603,
      "gałę": 4604,
      "nadziei": 4605,
      "jeźdź": 4606,
      "pałacu": 4607,
      "słyszeć": 4608,
      "pogrą": 4609,
      "San": 4610,
      "it": 4611,
      "lod": 4612,
      "sna": 4613,
      "sne": 4614,
      "udzie": 4615,
      "wola": 4616,
      "odde": 4617,
      "szczerze": 4618,
      "ściem": 4619,
      "łeb": 4620,
      "pewnym": 4621,
      "młodzi": 4622,
      "Dro": 4623,
      "blo": 4624,
      "nowej": 4625,
      "wsta": 4626,
      "źć": 4627,
      "liła": 4628,
      "obfi": 4629,
      "przyjem": 4630,
      "boha": 4631,
      "druga": 4632,
      "Rady": 4633,
      "rycerze": 4634,
      "głupi": 4635,
      "blem": 4636,
      "wka": 4637,
      "ńscy": 4638,
      "bywał": 4639,
      "odga": 4640,
      "przybra": 4641,
      "beł": 4642,
      "!…”": 4643,
      "Pewnie": 4644,
      "puścić": 4645,
      "wszelkie": 4646,
      "Klu": 4647,
      "ana": 4648,
      "zmniej": 4649,
      "zrozumiał": 4650,
      "wydał": 4651,
      "dawał": 4652,
      "dyda": 4653,
      "angie": 4654,
      "jącymi": 4655,
      "słyszy": 4656,
      "polskie": 4657,
      "Krzyszto": 4658,
      "miesiąc": 4659,
      "Ursu": 4660,
      "bł": 4661,
      "dniem": 4662,
      "nieważ": 4663,
      "nieszczęście": 4664,
      "pomy": 4665,
      "liwie": 4666,
      "mistrza": 4667,
      "danie": 4668,
      "mując": 4669,
      "skro": 4670,
      "chwilą": 4671,
      "szukał": 4672,
      "święty": 4673,
      "Murzy": 4674,
      "wysokości": 4675,
      "nieprzyjaciela": 4676,
      "sposobem": 4677,
      "far": 4678,
      "fol": 4679,
      "gość": 4680,
      "dala": 4681,
      "lkoho": 4682,
      "strachu": 4683,
      "dźwię": 4684,
      "wiono": 4685,
      "gniewu": 4686,
      "skrzydła": 4687,
      "Pentuer": 4688,
      "gwar": 4689,
      "km": 4690,
      "otrzyma": 4691,
      "schro": 4692,
      "tność": 4693,
      "wtó": 4694,
      "ńcem": 4695,
      "powrót": 4696,
      "rzym": 4697,
      "wodzie": 4698,
      "boże": 4699,
      "sąsia": 4700,
      "dio": 4701,
      "zdanie": 4702,
      "198": 4703,
      "majątek": 4704,
      "środowi": 4705,
      "brzeg": 4706,
      "środek": 4707,
      "łzami": 4708,
      "nasi": 4709,
      "rali": 4710,
      "lili": 4711,
      "kapita": 4712,
      "żebym": 4713,
      "codzien": 4714,
      "sklep": 4715,
      "jegomość": 4716,
      "służą": 4717,
      "wielce": 4718,
      "parła": 4719,
      "pełno": 4720,
      "kazało": 4721,
      "Można": 4722,
      "każdą": 4723,
      "północ": 4724,
      "nikami": 4725,
      "szone": 4726,
      "spokoju": 4727,
      "ucieka": 4728,
      "Czego": 4729,
      "zgodnie": 4730,
      "Wąs": 4731,
      "SLD": 4732,
      "Kale": 4733,
      "nce": 4734,
      "niebezpie": 4735,
      "pomó": 4736,
      "posłu": 4737,
      "rosły": 4738,
      "zatru": 4739,
      "kapi": 4740,
      "manie": 4741,
      "Jedno": 4742,
      "brakło": 4743,
      "grafi": 4744,
      "większą": 4745,
      "Tuhaj": 4746,
      "zawod": 4747,
      "walki": 4748,
      "polskiej": 4749,
      "powinna": 4750,
      "100": 4751,
      "Gło": 4752,
      "Żo": 4753,
      "szpa": 4754,
      "pomie": 4755,
      "pomaga": 4756,
      "wysu": 4757,
      "cymi": 4758,
      "Jeste": 4759,
      "wracał": 4760,
      "olbrzymi": 4761,
      "cezar": 4762,
      "NI": 4763,
      "tch": 4764,
      "śpi": 4765,
      "chra": 4766,
      "nikomu": 4767,
      "wycię": 4768,
      "wygląd": 4769,
      "tomiast": 4770,
      "rynku": 4771,
      "maj": 4772,
      "remo": 4773,
      "swojego": 4774,
      "mart": 4775,
      "uśmiechnął": 4776,
      "względu": 4777,
      "niespodzia": 4778,
      "Owszem": 4779,
      "Ol": 4780,
      "Tro": 4781,
      "blu": 4782,
      "vi": 4783,
      "zgło": 4784,
      "nadal": 4785,
      "niały": 4786,
      "jaw": 4787,
      "dziło": 4788,
      "nomar": 4789,
      "pannę": 4790,
      "kłó": 4791,
      "warsza": 4792,
      "owskich": 4793,
      "bronić": 4794,
      "Bille": 4795,
      "WS": 4796,
      "Zdawało": 4797,
      "snąć": 4798,
      "twem": 4799,
      "zowie": 4800,
      "lime": 4801,
      "jech": 4802,
      "zatrzy": 4803,
      "wychy": 4804,
      "oddać": 4805,
      "Natomiast": 4806,
      "żoną": 4807,
      "ństwie": 4808,
      "fortu": 4809,
      "kolana": 4810,
      "Kar": 4811,
      "Two": 4812,
      "śmiało": 4813,
      "zachwy": 4814,
      "dziły": 4815,
      "kun": 4816,
      "niają": 4817,
      "profe": 4818,
      "będąc": 4819,
      "powietrzu": 4820,
      "Szlan": 4821,
      "starszy": 4822,
      "znaleźli": 4823,
      "odpowiedzial": 4824,
      "Babinicz": 4825,
      "bór": 4826,
      "dnej": 4827,
      "jmy": 4828,
      "oszczę": 4829,
      "pch": 4830,
      "tnej": 4831,
      "porozumie": 4832,
      "rzeniem": 4833,
      "godnie": 4834,
      "zawzię": 4835,
      "prawdy": 4836,
      "Chce": 4837,
      "zdję": 4838,
      "księżna": 4839,
      "forte": 4840,
      "koniecznie": 4841,
      "akcji": 4842,
      "Tatarów": 4843,
      "Polaków": 4844,
      "Rzędzian": 4845,
      "orze": 4846,
      "ogo": 4847,
      "szty": 4848,
      "spoczy": 4849,
      "siedli": 4850,
      "chami": 4851,
      "Toż": 4852,
      "chodziła": 4853,
      "górze": 4854,
      "szkoły": 4855,
      "zmiesza": 4856,
      "własnych": 4857,
      "uwagi": 4858,
      "klasy": 4859,
      "przyczyny": 4860,
      "Szlang": 4861,
      "dnych": 4862,
      "kały": 4863,
      "kowych": 4864,
      "nko": 4865,
      "oznaj": 4866,
      "otwie": 4867,
      "zza": 4868,
      "wybra": 4869,
      "wierzyć": 4870,
      "kiewicz": 4871,
      "moło": 4872,
      "łym": 4873,
      "sobo": 4874,
      "dników": 4875,
      "Telime": 4876,
      "kompu": 4877,
      "obrony": 4878,
      "skóry": 4879,
      "Europej": 4880,
      "wzrokiem": 4881,
      "informacji": 4882,
      "praszam": 4883,
      "bod": 4884,
      "dnym": 4885,
      "trzę": 4886,
      "ukazał": 4887,
      "znu": 4888,
      "żby": 4889,
      "niewiele": 4890,
      "niwer": 4891,
      "tanie": 4892,
      "czytać": 4893,
      "maja": 4894,
      "pur": 4895,
      "szczenia": 4896,
      "dnicy": 4897,
      "Star": 4898,
      "małego": 4899,
      "pójdę": 4900,
      "szczęśliwy": 4901,
      "Izabeli": 4902,
      "szeroko": 4903,
      "podstaw": 4904,
      "zmiany": 4905,
      "słyszałem": 4906,
      "kniaziów": 4907,
      "Wczoraj": 4908,
      "dół": 4909,
      "ks": 4910,
      "mgnie": 4911,
      "schy": 4912,
      "żała": 4913,
      "kochał": 4914,
      "wypła": 4915,
      "tył": 4916,
      "przeszka": 4917,
      "piw": 4918,
      "pisu": 4919,
      "zel": 4920,
      "skały": 4921,
      "char": 4922,
      "Jakie": 4923,
      "okół": 4924,
      "Wyso": 4925,
      "chodów": 4926,
      "przyjaciel": 4927,
      "wiadomości": 4928,
      "wiadomość": 4929,
      "spotkanie": 4930,
      "pioru": 4931,
      "Juranda": 4932,
      "Chrystusa": 4933,
      "kierunku": 4934,
      "nastąpi": 4935,
      "nili": 4936,
      "rzego": 4937,
      "dopóki": 4938,
      "łożył": 4939,
      "niając": 4940,
      "biła": 4941,
      "onów": 4942,
      "sądu": 4943,
      "łej": 4944,
      "brwi": 4945,
      "czarne": 4946,
      "następca": 4947,
      "przyjść": 4948,
      "dwór": 4949,
      "dziewczyny": 4950,
      "pracowników": 4951,
      "nował": 4952,
      "chą": 4953,
      "poszli": 4954,
      "zagrani": 4955,
      "żeniu": 4956,
      "nogami": 4957,
      "czyński": 4958,
      "władzy": 4959,
      "niosły": 4960,
      "tronu": 4961,
      "pewna": 4962,
      "chęć": 4963,
      "milczenie": 4964,
      "Rzekł": 4965,
      "dworu": 4966,
      "porwał": 4967,
      "doskonale": 4968,
      "Szlangba": 4969,
      "Ger": 4970,
      "Ró": 4971,
      "lały": 4972,
      "czały": 4973,
      "posęp": 4974,
      "stó": 4975,
      "jezio": 4976,
      "tylu": 4977,
      "mag": 4978,
      "mami": 4979,
      "kier": 4980,
      "dym": 4981,
      "pieśni": 4982,
      "podał": 4983,
      "chach": 4984,
      "skać": 4985,
      "fis": 4986,
      "Chwi": 4987,
      "dzeniem": 4988,
      "pierwej": 4989,
      "chciałem": 4990,
      "każda": 4991,
      "chodź": 4992,
      "siłę": 4993,
      "pamiętam": 4994,
      "Men": 4995,
      "rozmawiać": 4996,
      "seksu": 4997,
      "samych": 4998,
      "Aulu": 4999,
      "40": 5000,
      "afe": 5001,
      "alkoho": 5002,
      "umyślnie": 5003,
      "nieprzyjaciół": 5004,
      "zap": 5005,
      "kato": 5006,
      "kilo": 5007,
      "pasa": 5008,
      "toż": 5009,
      "tyłu": 5010,
      "reda": 5011,
      "piał": 5012,
      "budow": 5013,
      "Jaki": 5014,
      "figu": 5015,
      "złota": 5016,
      "trwa": 5017,
      "tłumy": 5018,
      "cyjnej": 5019,
      "ostatniej": 5020,
      "Żydów": 5021,
      "dobrego": 5022,
      "Który": 5023,
      "oficerów": 5024,
      "Oleńka": 5025,
      "ódł": 5026,
      "śń": 5027,
      "roka": 5028,
      "gom": 5029,
      "jan": 5030,
      "wyr": 5031,
      "wyszła": 5032,
      "tydzień": 5033,
      "wiecznie": 5034,
      "czynił": 5035,
      "cek": 5036,
      "zywał": 5037,
      "pewnego": 5038,
      "Miło": 5039,
      "słod": 5040,
      "zależy": 5041,
      "środka": 5042,
      "powinni": 5043,
      "powtarzał": 5044,
      "jakimś": 5045,
      "ramionami": 5046,
      "Kazimierz": 5047,
      "prezydenta": 5048,
      "Powia": 5049,
      "wne": 5050,
      "czce": 5051,
      "pocał": 5052,
      "techni": 5053,
      "mien": 5054,
      "oblę": 5055,
      "ścian": 5056,
      "przygo": 5057,
      "nąc": 5058,
      "salo": 5059,
      "nadto": 5060,
      "gieł": 5061,
      "partii": 5062,
      "późno": 5063,
      "południ": 5064,
      "miecznik": 5065,
      "projekt": 5066,
      "Mał": 5067,
      "nką": 5068,
      "otu": 5069,
      "niekiedy": 5070,
      "napad": 5071,
      "czką": 5072,
      "zamia": 5073,
      "kat": 5074,
      "żeni": 5075,
      "wyciągnął": 5076,
      "wykony": 5077,
      "boru": 5078,
      "czono": 5079,
      "Lit": 5080,
      "pozba": 5081,
      "światła": 5082,
      "Według": 5083,
      "młodych": 5084,
      "tysiąc": 5085,
      "gwałtow": 5086,
      "Gra": 5087,
      "pł": 5088,
      "snęła": 5089,
      "uwol": 5090,
      "zwło": 5091,
      "żka": 5092,
      "rosyj": 5093,
      "ciwszy": 5094,
      "wiedząc": 5095,
      "przeszedł": 5096,
      "stada": 5097,
      "ństw": 5098,
      "Mia": 5099,
      "księdza": 5100,
      "szczególnie": 5101,
      "możliwe": 5102,
      "wieczora": 5103,
      "tzw": 5104,
      "fanta": 5105,
      "stóp": 5106,
      "Ej": 5107,
      "adwo": 5108,
      "opo": 5109,
      "pru": 5110,
      "naraz": 5111,
      "szkla": 5112,
      "stół": 5113,
      "lii": 5114,
      "liczne": 5115,
      "wiły": 5116,
      "tań": 5117,
      "rys": 5118,
      "stal": 5119,
      "pisze": 5120,
      "deszcz": 5121,
      "niejszą": 5122,
      "służy": 5123,
      "Woje": 5124,
      "trady": 5125,
      "skute": 5126,
      "powstrzy": 5127,
      "wolał": 5128,
      "dziawszy": 5129,
      "ekspe": 5130,
      "piękny": 5131,
      "łańcu": 5132,
      "delika": 5133,
      "owiec": 5134,
      "Niemie": 5135,
      "inną": 5136,
      "wzrusze": 5137,
      "milczał": 5138,
      "grupy": 5139,
      "pamięć": 5140,
      "struktu": 5141,
      "pierwsza": 5142,
      "robię": 5143,
      "Hiram": 5144,
      "Stanisław": 5145,
      "Rob": 5146,
      "pociąg": 5147,
      "remi": 5148,
      "rezy": 5149,
      "spor": 5150,
      "gij": 5151,
      "meta": 5152,
      "problem": 5153,
      "najwięcej": 5154,
      "służyć": 5155,
      "cudzo": 5156,
      "Taki": 5157,
      "?…”": 5158,
      "społecze": 5159,
      "świątobliwości": 5160,
      "wściekło": 5161,
      "drewnia": 5162,
      "AR": 5163,
      "Ste": 5164,
      "ck": 5165,
      "okie": 5166,
      "pogrze": 5167,
      "zabie": 5168,
      "zapro": 5169,
      "koryta": 5170,
      "łaski": 5171,
      "przesta": 5172,
      "mojego": 5173,
      "obło": 5174,
      "zechce": 5175,
      "wiam": 5176,
      "skier": 5177,
      "Ależ": 5178,
      "dawały": 5179,
      "szono": 5180,
      "próbu": 5181,
      "pułki": 5182,
      "interesu": 5183,
      "rzuciła": 5184,
      "okazji": 5185,
      "Pierwszy": 5186,
      "mnóstwo": 5187,
      "Żołnie": 5188,
      "có": 5189,
      "uci": 5190,
      "naprzeciw": 5191,
      "pożar": 5192,
      "godz": 5193,
      "dostęp": 5194,
      "wodz": 5195,
      "rea": 5196,
      "obszer": 5197,
      "pies": 5198,
      "Jej": 5199,
      "ącą": 5200,
      "tran": 5201,
      "całkowi": 5202,
      "chodzili": 5203,
      "ństwem": 5204,
      "Mimo": 5205,
      "działania": 5206,
      "należą": 5207,
      "żołnier": 5208,
      "świątobliwość": 5209,
      "efe": 5210,
      "oprócz": 5211,
      "pozostał": 5212,
      "leciał": 5213,
      "mija": 5214,
      "wygra": 5215,
      "wiecze": 5216,
      "noś": 5217,
      "szymi": 5218,
      "biły": 5219,
      "gada": 5220,
      "biegła": 5221,
      "okno": 5222,
      "niono": 5223,
      "począć": 5224,
      "walił": 5225,
      "Zagłoby": 5226,
      "targ": 5227,
      "demu": 5228,
      "właściwie": 5229,
      "składa": 5230,
      "kandyda": 5231,
      "program": 5232,
      "jakiegoś": 5233,
      "Myśl": 5234,
      "puszczał": 5235,
      "wypadek": 5236,
      "słowem": 5237,
      "22": 5238,
      "Mem": 5239,
      "kta": 5240,
      "rwo": 5241,
      "uszu": 5242,
      "nań": 5243,
      "naci": 5244,
      "pojechał": 5245,
      "widzieli": 5246,
      "wielo": 5247,
      "owarzy": 5248,
      "granicy": 5249,
      "Stasia": 5250,
      "dźwi": 5251,
      "Mikoła": 5252,
      "Lip": 5253,
      "klaszto": 5254,
      "pierwszych": 5255,
      "zwierząt": 5256,
      "zdrowi": 5257,
      "słuchaj": 5258,
      "kogoś": 5259,
      "Egipt": 5260,
      "logii": 5261,
      "Niemców": 5262,
      "prezydent": 5263,
      "Tatarzy": 5264,
      "Longi": 5265,
      "Miller": 5266,
      "Asy": 5267,
      "Cy": 5268,
      "Gó": 5269,
      "Gda": 5270,
      "Trzy": 5271,
      "jona": 5272,
      "łki": 5273,
      "napo": 5274,
      "szel": 5275,
      "bogowie": 5276,
      "lubo": 5277,
      "dum": 5278,
      "żono": 5279,
      "ustach": 5280,
      "dowanie": 5281,
      "Andrzeja": 5282,
      "niepokój": 5283,
      "Radziwiłł": 5284,
      "musieli": 5285,
      "fie": 5286,
      "fla": 5287,
      "opuścił": 5288,
      "tnego": 5289,
      "niedawno": 5290,
      "stka": 5291,
      "zar": 5292,
      "wata": 5293,
      "nocą": 5294,
      "przeszko": 5295,
      "sarz": 5296,
      "pienie": 5297,
      "sport": 5298,
      "niejszego": 5299,
      "medy": 5300,
      "Zawsze": 5301,
      "słone": 5302,
      "odpowied": 5303,
      "małże": 5304,
      "ruszyli": 5305,
      "dłoni": 5306,
      "starosta": 5307,
      "kaszte": 5308,
      "trzydzieści": 5309,
      "Charłam": 5310,
      "!”.": 5311,
      "Szy": 5312,
      "spytała": 5313,
      "domy": 5314,
      "rep": 5315,
      "stam": 5316,
      "ture": 5317,
      "bitwie": 5318,
      "gaze": 5319,
      "dera": 5320,
      "dobrą": 5321,
      "sercem": 5322,
      "zdoła": 5323,
      "lekko": 5324,
      "Kur": 5325,
      "gotowi": 5326,
      "jeździe": 5327,
      "tęskno": 5328,
      "Malbo": 5329,
      "grał": 5330,
      "ołta": 5331,
      "wny": 5332,
      "źre": 5333,
      "rany": 5334,
      "jechała": 5335,
      "obser": 5336,
      "podniosła": 5337,
      "sied": 5338,
      "meto": 5339,
      "trzecie": 5340,
      "wól": 5341,
      "myślałem": 5342,
      "tarł": 5343,
      "Wać": 5344,
      "dłonie": 5345,
      "osoba": 5346,
      "krótko": 5347,
      "sztuki": 5348,
      "względem": 5349,
      "Niemcy": 5350,
      "więzienia": 5351,
      "kapelu": 5352,
      "mołoj": 5353,
      "Zda": 5354,
      "zmy": 5355,
      "Żmu": 5356,
      "czała": 5357,
      "poto": 5358,
      "lewo": 5359,
      "dokoła": 5360,
      "wicy": 5361,
      "wybiera": 5362,
      "mana": 5363,
      "pió": 5364,
      "głe": 5365,
      "fizy": 5366,
      "żać": 5367,
      "wszelako": 5368,
      "stek": 5369,
      "mogąc": 5370,
      "zdania": 5371,
      "Czasem": 5372,
      "prezent": 5373,
      "pustyni": 5374,
      "mądro": 5375,
      "piechoty": 5376,
      "nazwisko": 5377,
      "Jednakże": 5378,
      "namiestnik": 5379,
      "hrabi": 5380,
      "TO": 5381,
      "goni": 5382,
      "bab": 5383,
      "duchu": 5384,
      "dzeń": 5385,
      "łen": 5386,
      "premie": 5387,
      "zaczęli": 5388,
      "południe": 5389,
      "tygodni": 5390,
      "artyku": 5391,
      "większość": 5392,
      "ER": 5393,
      "Zło": 5394,
      "opan": 5395,
      "spy": 5396,
      "udał": 5397,
      "maszy": 5398,
      "prawić": 5399,
      "biegli": 5400,
      "jedni": 5401,
      "czoną": 5402,
      "braci": 5403,
      "twojej": 5404,
      "dawnych": 5405,
      "stanow": 5406,
      "podobno": 5407,
      "cyjny": 5408,
      "rodzin": 5409,
      "straszne": 5410,
      "chłopów": 5411,
      "radością": 5412,
      "Chmielnickiego": 5413,
      "Wojski": 5414,
      "Justyna": 5415,
      "Cię": 5416,
      "ncie": 5417,
      "opowiadał": 5418,
      "niektórzy": 5419,
      "pojedzie": 5420,
      "radę": 5421,
      "koron": 5422,
      "dola": 5423,
      "przysz": 5424,
      "rozmowa": 5425,
      "owość": 5426,
      "ważne": 5427,
      "Janusz": 5428,
      "możliwości": 5429,
      "słusznie": 5430,
      "chłopak": 5431,
      "Sejm": 5432,
      "pojedyn": 5433,
      "Ochocki": 5434,
      "europej": 5435,
      "Idry": 5436,
      "Krak": 5437,
      "klej": 5438,
      "ucha": 5439,
      "złu": 5440,
      "żąd": 5441,
      "nala": 5442,
      "nareszcie": 5443,
      "nina": 5444,
      "Takie": 5445,
      "socja": 5446,
      "robią": 5447,
      "serde": 5448,
      "Tygel": 5449,
      "Maćka": 5450,
      "mężczyzna": 5451,
      "drzwiach": 5452,
      "Mę": 5453,
      "Zbara": 5454,
      "swymi": 5455,
      "ślu": 5456,
      "listo": 5457,
      "zastęp": 5458,
      "wypeł": 5459,
      "woju": 5460,
      "zespo": 5461,
      "siedzieć": 5462,
      "inna": 5463,
      "Cha": 5464,
      "ciął": 5465,
      "śmiechem": 5466,
      "rzucał": 5467,
      "twoją": 5468,
      "kryty": 5469,
      "kochany": 5470,
      "pięćdziesiąt": 5471,
      "kościoła": 5472,
      "otacza": 5473,
      "oświe": 5474,
      "pnia": 5475,
      "spły": 5476,
      "upo": 5477,
      "napi": 5478,
      "pomimo": 5479,
      "zaufa": 5480,
      "dostanie": 5481,
      "dokąd": 5482,
      "mić": 5483,
      "waści": 5484,
      "pary": 5485,
      "torów": 5486,
      "eme": 5487,
      "kraty": 5488,
      "powstał": 5489,
      "kończył": 5490,
      "zostali": 5491,
      "tkowo": 5492,
      "dwoma": 5493,
      "szlachec": 5494,
      "piękne": 5495,
      "następcy": 5496,
      "spokojny": 5497,
      "wniosek": 5498,
      "Bądź": 5499,
      "PO": 5500,
      "Wró": 5501,
      "poszła": 5502,
      "cin": 5503,
      "cicha": 5504,
      "wiecie": 5505,
      "nogach": 5506,
      "szeni": 5507,
      "boju": 5508,
      "gam": 5509,
      "wzdy": 5510,
      "bracia": 5511,
      "trop": 5512,
      "konta": 5513,
      "konkur": 5514,
      "dzam": 5515,
      "panii": 5516,
      "Wiesz": 5517,
      "milczenia": 5518,
      "oficja": 5519,
      "robot": 5520,
      "Aby": 5521,
      "Aposto": 5522,
      "Vi": 5523,
      "hoj": 5524,
      "ptak": 5525,
      "uje": 5526,
      "ve": 5527,
      "rzało": 5528,
      "niektórych": 5529,
      "niecierpli": 5530,
      "raca": 5531,
      "zabezpie": 5532,
      "zapytała": 5533,
      "pania": 5534,
      "spowo": 5535,
      "Ponieważ": 5536,
      "dzono": 5537,
      "Mah": 5538,
      "twoim": 5539,
      "Wido": 5540,
      "wolności": 5541,
      "ściami": 5542,
      "zdaniem": 5543,
      "stanowisko": 5544,
      "draż": 5545,
      "Cent": 5546,
      "administra": 5547,
      "Głu": 5548,
      "Tra": 5549,
      "nowym": 5550,
      "ośmie": 5551,
      "tnia": 5552,
      "nał": 5553,
      "szó": 5554,
      "owni": 5555,
      "czysz": 5556,
      "kują": 5557,
      "staj": 5558,
      "koncer": 5559,
      "tkach": 5560,
      "czerwie": 5561,
      "potrzeby": 5562,
      "wracać": 5563,
      "język": 5564,
      "Ramzesa": 5565,
      "Gru": 5566,
      "sje": 5567,
      "ózł": 5568,
      "żki": 5569,
      "szała": 5570,
      "szczył": 5571,
      "porówna": 5572,
      "pośred": 5573,
      "wozy": 5574,
      "gabi": 5575,
      "gadać": 5576,
      "znakomi": 5577,
      "ing": 5578,
      "progu": 5579,
      "punk": 5580,
      "lono": 5581,
      "szczenie": 5582,
      "okrą": 5583,
      "trakt": 5584,
      "króle": 5585,
      "Sakowi": 5586,
      "kilkadziesiąt": 5587,
      "śpiewa": 5588,
      "listów": 5589,
      "polskim": 5590,
      "zamknię": 5591,
      "oznacza": 5592,
      "Flo": 5593,
      "Nu": 5594,
      "awa": 5595,
      "cle": 5596,
      "mk": 5597,
      "prowi": 5598,
      "upadł": 5599,
      "zbi": 5600,
      "niżej": 5601,
      "lidar": 5602,
      "zato": 5603,
      "łami": 5604,
      "jadą": 5605,
      "wierzył": 5606,
      "moi": 5607,
      "bank": 5608,
      "stość": 5609,
      "filo": 5610,
      "małżon": 5611,
      "przod": 5612,
      "jasno": 5613,
      "Ksiądz": 5614,
      "położył": 5615,
      "dziewięć": 5616,
      "Malbor": 5617,
      "aku": 5618,
      "eli": 5619,
      "uję": 5620,
      "naród": 5621,
      "wiod": 5622,
      "mani": 5623,
      "ścił": 5624,
      "bek": 5625,
      "ordy": 5626,
      "dźcie": 5627,
      "kończy": 5628,
      "cyjnego": 5629,
      "Kul": 5630,
      "godny": 5631,
      "heł": 5632,
      "przyszłości": 5633,
      "olbrzymie": 5634,
      "USA": 5635,
      "stamtąd": 5636,
      "cku": 5637,
      "hm": 5638,
      "idąc": 5639,
      "ng": 5640,
      "poty": 5641,
      "doszło": 5642,
      "miot": 5643,
      "ład": 5644,
      "wiedziała": 5645,
      "pilnie": 5646,
      "alem": 5647,
      "gim": 5648,
      "złożył": 5649,
      "święt": 5650,
      "Dnie": 5651,
      "pr": 5652,
      "zwol": 5653,
      "Ślą": 5654,
      "niewoli": 5655,
      "poku": 5656,
      "rzeli": 5657,
      "czeniem": 5658,
      "najważ": 5659,
      "parla": 5660,
      "port": 5661,
      "trafił": 5662,
      "pójść": 5663,
      "Inni": 5664,
      "ratować": 5665,
      "Danusi": 5666,
      "powrotem": 5667,
      "Józe": 5668,
      "Krzesz": 5669,
      "Dale": 5670,
      "Kowa": 5671,
      "th": 5672,
      "usłyszał": 5673,
      "wtem": 5674,
      "zg": 5675,
      "żały": 5676,
      "połowie": 5677,
      "liwe": 5678,
      "ciałem": 5679,
      "żeń": 5680,
      "mora": 5681,
      "kupy": 5682,
      "szać": 5683,
      "instytu": 5684,
      "bramy": 5685,
      "piętna": 5686,
      "konku": 5687,
      "Czyli": 5688,
      "sprawach": 5689,
      "Ligię": 5690,
      "dziwne": 5691,
      "błyszczą": 5692,
      "Oczywiście": 5693,
      "aresz": 5694,
      "drę": 5695,
      "wokół": 5696,
      "któż": 5697,
      "praca": 5698,
      "każde": 5699,
      "Maria": 5700,
      "Kiejda": 5701,
      "ciężar": 5702,
      "straszny": 5703,
      "głup": 5704,
      "zaczęły": 5705,
      "skończy": 5706,
      "sukce": 5707,
      "zauważył": 5708,
      "Następnie": 5709,
      "cudzoziem": 5710,
      "60": 5711,
      "Mło": 5712,
      "SA": 5713,
      "mro": 5714,
      "trój": 5715,
      "kacji": 5716,
      "nes": 5717,
      "obraź": 5718,
      "owaniem": 5719,
      "żyło": 5720,
      "pili": 5721,
      "skała": 5722,
      "Niektórzy": 5723,
      "burza": 5724,
      "żonę": 5725,
      "lskich": 5726,
      "Coś": 5727,
      "miejscach": 5728,
      "Samo": 5729,
      "patrzyli": 5730,
      "ogromne": 5731,
      "stopni": 5732,
      "spotkał": 5733,
      "Lor": 5734,
      "PA": 5735,
      "op": 5736,
      "rolę": 5737,
      "lia": 5738,
      "zachę": 5739,
      "cichy": 5740,
      "dostar": 5741,
      "paź": 5742,
      "mas": 5743,
      "rejest": 5744,
      "kuzy": 5745,
      "gatu": 5746,
      "wiają": 5747,
      "stoją": 5748,
      "propozy": 5749,
      "syte": 5750,
      "żalu": 5751,
      "żadna": 5752,
      "Widzę": 5753,
      "druży": 5754,
      "północy": 5755,
      "mocniej": 5756,
      "wysokie": 5757,
      "proces": 5758,
      "hetmana": 5759,
      "marszałek": 5760,
      "inwesty": 5761,
      "Krakowie": 5762,
      "23": 5763,
      "El": 5764,
      "Pło": 5765,
      "Sła": 5766,
      "oży": 5767,
      "utrzyma": 5768,
      "wskim": 5769,
      "zny": 5770,
      "óz": 5771,
      "żan": 5772,
      "poszuki": 5773,
      "radzi": 5774,
      "jenerał": 5775,
      "zarzu": 5776,
      "koł": 5777,
      "waszą": 5778,
      "wieki": 5779,
      "lasy": 5780,
      "rozko": 5781,
      "Niestety": 5782,
      "instru": 5783,
      "skom": 5784,
      "Widać": 5785,
      "rządza": 5786,
      "gęst": 5787,
      "krzyki": 5788,
      "śmiercią": 5789,
      "wojewody": 5790,
      "środków": 5791,
      "przypatry": 5792,
      "Nowowiejski": 5793,
      "Ca": 5794,
      "Unii": 5795,
      "drą": 5796,
      "iła": 5797,
      "utk": 5798,
      "nieśli": 5799,
      "jesta": 5800,
      "zabrał": 5801,
      "leg": 5802,
      "kary": 5803,
      "łom": 5804,
      "tonem": 5805,
      "dywi": 5806,
      "bier": 5807,
      "skali": 5808,
      "rzadko": 5809,
      "żonym": 5810,
      "dzona": 5811,
      "Ledwie": 5812,
      "działalności": 5813,
      "kamień": 5814,
      "wiczów": 5815,
      "chwilami": 5816,
      "zginął": 5817,
      "wyjść": 5818,
      "tajemni": 5819,
      "pozwolił": 5820,
      "książki": 5821,
      "księżyc": 5822,
      "filozo": 5823,
      "brew": 5824,
      "kcie": 5825,
      "klie": 5826,
      "sał": 5827,
      "uto": 5828,
      "śmia": 5829,
      "liwy": 5830,
      "zaci": 5831,
      "zaprze": 5832,
      "zagra": 5833,
      "leniem": 5834,
      "mir": 5835,
      "wozu": 5836,
      "obję": 5837,
      "cona": 5838,
      "podnosi": 5839,
      "inten": 5840,
      "lonym": 5841,
      "głości": 5842,
      "płaci": 5843,
      "śniegu": 5844,
      "złote": 5845,
      "Nilu": 5846,
      "Podkomo": 5847,
      "komuni": 5848,
      "nadzieja": 5849,
      "historii": 5850,
      "niewolników": 5851,
      "Witold": 5852,
      "mgnieniu": 5853,
      "Im": 5854,
      "KO": 5855,
      "jże": 5856,
      "jezd": 5857,
      "przybył": 5858,
      "rusz": 5859,
      "del": 5860,
      "zywać": 5861,
      "chając": 5862,
      "pierś": 5863,
      "rzędu": 5864,
      "różno": 5865,
      "płynie": 5866,
      "Basi": 5867,
      "poczęło": 5868,
      "własnego": 5869,
      "blask": 5870,
      "ratury": 5871,
      "spotkać": 5872,
      "dobrym": 5873,
      "grzmo": 5874,
      "gwiazdy": 5875,
      "CZ": 5876,
      "Ws": 5877,
      "atak": 5878,
      "asy": 5879,
      "ekono": 5880,
      "uści": 5881,
      "czkach": 5882,
      "kap": 5883,
      "każę": 5884,
      "wyle": 5885,
      "wieś": 5886,
      "wierzę": 5887,
      "morza": 5888,
      "szyi": 5889,
      "szacu": 5890,
      "pen": 5891,
      "lonej": 5892,
      "czołem": 5893,
      "kredy": 5894,
      "piękna": 5895,
      "Czeka": 5896,
      "zjawi": 5897,
      "ciężkie": 5898,
      "zabija": 5899,
      "ratunek": 5900,
      "zobaczył": 5901,
      "komisji": 5902,
      "puszczać": 5903,
      "południu": 5904,
      "glądając": 5905,
      "podstawie": 5906,
      "film": 5907,
      "Francu": 5908,
      "wicher": 5909,
      "weźmie": 5910,
      "Adam": 5911,
      "Hra": 5912,
      "cznymi": 5913,
      "poinfor": 5914,
      "zawa": 5915,
      "ładu": 5916,
      "wyjechał": 5917,
      "despe": 5918,
      "szabla": 5919,
      "ogniem": 5920,
      "nuje": 5921,
      "rian": 5922,
      "Rot": 5923,
      "podobnych": 5924,
      "jasne": 5925,
      "zwycięstwo": 5926,
      "pierwszą": 5927,
      "otwarte": 5928,
      "pachoł": 5929,
      "doskona": 5930,
      "Gerwa": 5931,
      "gminy": 5932,
      "kowej": 5933,
      "otrzy": 5934,
      "nieprze": 5935,
      "chrz": 5936,
      "owro": 5937,
      "zasy": 5938,
      "dozna": 5939,
      "tygod": 5940,
      "mur": 5941,
      "mym": 5942,
      "weszli": 5943,
      "prosta": 5944,
      "loną": 5945,
      "mnieć": 5946,
      "mięk": 5947,
      "Karol": 5948,
      "Mosk": 5949,
      "czymś": 5950,
      "Jutro": 5951,
      "Sara": 5952,
      "197": 5953,
      "wróciła": 5954,
      "kręcił": 5955,
      "sędzi": 5956,
      "Bene": 5957,
      "wyłącznie": 5958,
      "niedzielę": 5959,
      "Rozumie": 5960,
      "Pompo": 5961,
      "Mente": 5962,
      "Dwa": 5963,
      "Mog": 5964,
      "pode": 5965,
      "zakry": 5966,
      "kolum": 5967,
      "wysy": 5968,
      "mawiał": 5969,
      "odet": 5970,
      "odpoczy": 5971,
      "obsza": 5972,
      "tują": 5973,
      "bitwa": 5974,
      "orsza": 5975,
      "miaste": 5976,
      "konkre": 5977,
      "skutek": 5978,
      "musisz": 5979,
      "patrzyć": 5980,
      "jeżdżał": 5981,
      "kosztow": 5982,
      "czerwone": 5983,
      "grzbie": 5984,
      "głowami": 5985,
      "pochylił": 5986,
      "wątpliwości": 5987,
      "SZ": 5988,
      "Sar": 5989,
      "Twa": 5990,
      "Znowu": 5991,
      "nóż": 5992,
      "oczami": 5993,
      "wców": 5994,
      "zbior": 5995,
      "sztor": 5996,
      "linie": 5997,
      "liczyć": 5998,
      "wiała": 5999,
      "dziecię": 6000,
      "staw": 6001,
      "Zaś": 6002,
      "bunt": 6003,
      "nictwo": 6004,
      "wolność": 6005,
      "należało": 6006,
      "fur": 6007,
      "ludzkich": 6008,
      "strasznie": 6009,
      "szereg": 6010,
      "Lorche": 6011,
      "paździer": 6012,
      "Obec": 6013,
      "Wz": 6014,
      "is": 6015,
      "kowy": 6016,
      "usiadł": 6017,
      "śnię": 6018,
      "naczy": 6019,
      "poły": 6020,
      "posie": 6021,
      "poża": 6022,
      "zaw": 6023,
      "zacja": 6024,
      "bywało": 6025,
      "patry": 6026,
      "majesta": 6027,
      "chodzę": 6028,
      "pannie": 6029,
      "nędz": 6030,
      "dzają": 6031,
      "krok": 6032,
      "krokiem": 6033,
      "dowała": 6034,
      "blasku": 6035,
      "terenie": 6036,
      "białą": 6037,
      "Bohuna": 6038,
      "córki": 6039,
      "niwersyte": 6040,
      "Niemiec": 6041,
      "Mentezu": 6042,
      "Gro": 6043,
      "Kobie": 6044,
      "Ża": 6045,
      "żne": 6046,
      "człe": 6047,
      "nikom": 6048,
      "zapad": 6049,
      "doszedł": 6050,
      "dawać": 6051,
      "piej": 6052,
      "pusto": 6053,
      "Narod": 6054,
      "Naprzód": 6055,
      "ogród": 6056,
      "równi": 6057,
      "stronach": 6058,
      "Szko": 6059,
      "młodzień": 6060,
      "kościół": 6061,
      "głych": 6062,
      "uczucia": 6063,
      "natury": 6064,
      "jakiejś": 6065,
      "chmur": 6066,
      "białych": 6067,
      "ofiary": 6068,
      "przypomniał": 6069,
      "stycznia": 6070,
      "Kraj": 6071,
      "Lin": 6072,
      "abym": 6073,
      "gno": 6074,
      "ii": 6075,
      "tw": 6076,
      "ukło": 6077,
      "niestety": 6078,
      "nator": 6079,
      "potwo": 6080,
      "pomysł": 6081,
      "zaro": 6082,
      "pane": 6083,
      "wiemy": 6084,
      "wiedzy": 6085,
      "wiedzieli": 6086,
      "muszkie": 6087,
      "jakkolwiek": 6088,
      "bienia": 6089,
      "stoli": 6090,
      "działu": 6091,
      "Jerzy": 6092,
      "wszystkimi": 6093,
      "czonym": 6094,
      "kłam": 6095,
      "czuje": 6096,
      "waćpanna": 6097,
      "byłaby": 6098,
      "mentar": 6099,
      "ojcu": 6100,
      "zdołał": 6101,
      "plan": 6102,
      "bladł": 6103,
      "królowi": 6104,
      "skończył": 6105,
      "zdziwieniem": 6106,
      "sprawiedliwości": 6107,
      "kościele": 6108,
      "Długo": 6109,
      "Wśród": 6110,
      "otrzymał": 6111,
      "uchy": 6112,
      "wszak": 6113,
      "zle": 6114,
      "nasy": 6115,
      "zacie": 6116,
      "koszu": 6117,
      "wodza": 6118,
      "przestał": 6119,
      "odź": 6120,
      "oder": 6121,
      "czeni": 6122,
      "pisów": 6123,
      "siadła": 6124,
      "Marek": 6125,
      "rią": 6126,
      "łez": 6127,
      "konsu": 6128,
      "resztę": 6129,
      "Wier": 6130,
      "zmienia": 6131,
      "Krzysia": 6132,
      "twierdzi": 6133,
      "organizacji": 6134,
      "Człowie": 6135,
      "przyszłość": 6136,
      "spodziewał": 6137,
      "kwiaty": 6138,
      "wieczor": 6139,
      "krzywdy": 6140,
      "rozporzą": 6141,
      "wno": 6142,
      "znę": 6143,
      "zgrzy": 6144,
      "rzone": 6145,
      "niektóre": 6146,
      "owców": 6147,
      "rzeniu": 6148,
      "zapowie": 6149,
      "zazdro": 6150,
      "widzenia": 6151,
      "waszych": 6152,
      "wyglądał": 6153,
      "dziu": 6154,
      "mieszcza": 6155,
      "przysią": 6156,
      "przysłu": 6157,
      "rus": 6158,
      "bal": 6159,
      "rozpro": 6160,
      "pełen": 6161,
      "trzeź": 6162,
      "ziar": 6163,
      "rio": 6164,
      "Paweł": 6165,
      "Starski": 6166,
      "scypli": 6167,
      "sprawo": 6168,
      "Angli": 6169,
      "włosów": 6170,
      "ostatnim": 6171,
      "służba": 6172,
      "miesiące": 6173,
      "Wielki": 6174,
      "szpitala": 6175,
      "drzwiami": 6176,
      "Sapieha": 6177,
      "handl": 6178,
      "dyrektor": 6179,
      "Spychowa": 6180,
      "seksual": 6181,
      "?\"": 6182,
      "Tłu": 6183,
      "bała": 6184,
      "brzę": 6185,
      "emi": 6186,
      "iem": 6187,
      "liwszy": 6188,
      "kanie": 6189,
      "wynagro": 6190,
      "bacz": 6191,
      "rozbi": 6192,
      "mówiłem": 6193,
      "władzę": 6194,
      "Mary": 6195,
      "ojcze": 6196,
      "tkami": 6197,
      "dowod": 6198,
      "dowali": 6199,
      "Noc": 6200,
      "niechże": 6201,
      "uderza": 6202,
      "klęski": 6203,
      "zamiar": 6204,
      "Kilka": 6205,
      "wyjdzie": 6206,
      "okazało": 6207,
      "Dzięki": 6208,
      "pułkownik": 6209,
      "wstyd": 6210,
      "repti": 6211,
      "Głów": 6212,
      "RA": 6213,
      "Roba": 6214,
      "Ukrai": 6215,
      "cmenta": 6216,
      "Ło": 6217,
      "pozio": 6218,
      "miła": 6219,
      "wyobra": 6220,
      "mali": 6221,
      "rety": 6222,
      "oddziały": 6223,
      "ciep": 6224,
      "mon": 6225,
      "owanym": 6226,
      "gają": 6227,
      "biegu": 6228,
      "dzonych": 6229,
      "niosą": 6230,
      "pływa": 6231,
      "stanowie": 6232,
      "chłopi": 6233,
      "dowci": 6234,
      "lepsze": 6235,
      "powoła": 6236,
      "pracować": 6237,
      "żadne": 6238,
      "dzielić": 6239,
      "godne": 6240,
      "nauki": 6241,
      "długim": 6242,
      "baronowa": 6243,
      "Zygfry": 6244,
      "mężczyzn": 6245,
      "sobotę": 6246,
      "dnego": 6247,
      "tnik": 6248,
      "zasię": 6249,
      "komó": 6250,
      "kochać": 6251,
      "tany": 6252,
      "torium": 6253,
      "przywy": 6254,
      "mun": 6255,
      "murów": 6256,
      "sub": 6257,
      "budzi": 6258,
      "najczęściej": 6259,
      "czom": 6260,
      "będziem": 6261,
      "Macie": 6262,
      "Tyle": 6263,
      "Moja": 6264,
      "Szczy": 6265,
      "ojc": 6266,
      "ojcem": 6267,
      "musimy": 6268,
      "godzina": 6269,
      "chciałbym": 6270,
      "czarny": 6271,
      "Dobrzy": 6272,
      "powinny": 6273,
      "świątyń": 6274,
      "nieboszczy": 6275,
      "oblicze": 6276,
      "niewiasty": 6277,
      "abso": 6278,
      "ojczyźnie": 6279,
      "Longinus": 6280,
      "opar": 6281,
      "twego": 6282,
      "usa": 6283,
      "vel": 6284,
      "nisko": 6285,
      "gory": 6286,
      "wiło": 6287,
      "wisi": 6288,
      "terze": 6289,
      "wysłał": 6290,
      "lauda": 6291,
      "rych": 6292,
      "przerywa": 6293,
      "mara": 6294,
      "momencie": 6295,
      "kuchni": 6296,
      "ruchem": 6297,
      "styczne": 6298,
      "Tatar": 6299,
      "możny": 6300,
      "większej": 6301,
      "zdawał": 6302,
      "zmienił": 6303,
      "okolicz": 6304,
      "darł": 6305,
      "uciekł": 6306,
      "Michała": 6307,
      "szepnęła": 6308,
      "stryj": 6309,
      "talentów": 6310,
      "nazwiska": 6311,
      "Komisji": 6312,
      "oficerowie": 6313,
      "Ile": 6314,
      "Min": 6315,
      "Rów": 6316,
      "Zosta": 6317,
      "gały": 6318,
      "gnę": 6319,
      "pały": 6320,
      "qu": 6321,
      "uło": 6322,
      "zma": 6323,
      "nieniem": 6324,
      "niedaleko": 6325,
      "szkę": 6326,
      "porze": 6327,
      "lista": 6328,
      "dosię": 6329,
      "wydało": 6330,
      "wozów": 6331,
      "dane": 6332,
      "podnieść": 6333,
      "chaty": 6334,
      "sel": 6335,
      "orga": 6336,
      "ciągnąć": 6337,
      "książęcej": 6338,
      "złowro": 6339,
      "obiecał": 6340,
      "Lub": 6341,
      "zgody": 6342,
      "córka": 6343,
      "Geb": 6344,
      "projektu": 6345,
      "zapomniał": 6346,
      "zastana": 6347,
      "błyskawi": 6348,
      "Łub": 6349,
      "prawdopodobnie": 6350,
      "Rzeczpospolita": 6351,
      "80": 6352,
      "Mało": 6353,
      "Wsze": 6354,
      "eta": 6355,
      "nnej": 6356,
      "oże": 6357,
      "opowie": 6358,
      "psa": 6359,
      "wle": 6360,
      "żeć": 6361,
      "tory": 6362,
      "woź": 6363,
      "czyste": 6364,
      "rezu": 6365,
      "dywał": 6366,
      "kupu": 6367,
      "stawał": 6368,
      "biec": 6369,
      "pek": 6370,
      "Zamo": 6371,
      "buła": 6372,
      "zując": 6373,
      "płacić": 6374,
      "płaszcz": 6375,
      "Kamie": 6376,
      "szkole": 6377,
      "Przyj": 6378,
      "Gdybym": 6379,
      "płomień": 6380,
      "uciekać": 6381,
      "starych": 6382,
      "kowskiego": 6383,
      "Czas": 6384,
      "zabił": 6385,
      "ratura": 6386,
      "dowiedział": 6387,
      "history": 6388,
      "warunki": 6389,
      "kawaler": 6390,
      "materiał": 6391,
      "Kt": 6392,
      "Towarzy": 6393,
      "onie": 6394,
      "porę": 6395,
      "stia": 6396,
      "jeńców": 6397,
      "zago": 6398,
      "łaskę": 6399,
      "wyciąga": 6400,
      "rekla": 6401,
      "nące": 6402,
      "piel": 6403,
      "pieśń": 6404,
      "wezwa": 6405,
      "bieda": 6406,
      "rękami": 6407,
      "sławie": 6408,
      "dawne": 6409,
      "wargi": 6410,
      "Byli": 6411,
      "dziećmi": 6412,
      "huk": 6413,
      "godzinie": 6414,
      "ludzkiej": 6415,
      "okresie": 6416,
      "strzały": 6417,
      "wszędy": 6418,
      "komnaty": 6419,
      "otwiera": 6420,
      "Szlangbaum": 6421,
      "katoli": 6422,
      "Któż": 6423,
      "Spraw": 6424,
      "bki": 6425,
      "fli": 6426,
      "klo": 6427,
      "onych": 6428,
      "orę": 6429,
      "płu": 6430,
      "ss": 6431,
      "uniesie": 6432,
      "nazajutrz": 6433,
      "waha": 6434,
      "jami": 6435,
      "wyczer": 6436,
      "wypyty": 6437,
      "wor": 6438,
      "dzikich": 6439,
      "czycy": 6440,
      "przeraź": 6441,
      "odbi": 6442,
      "silniej": 6443,
      "zej": 6444,
      "subie": 6445,
      "wznosi": 6446,
      "sąsie": 6447,
      "chwil": 6448,
      "zdrów": 6449,
      "rowania": 6450,
      "grom": 6451,
      "reszty": 6452,
      "Mil": 6453,
      "ustawi": 6454,
      "Litwie": 6455,
      "podobnego": 6456,
      "dwoje": 6457,
      "Krzywo": 6458,
      "bólu": 6459,
      "Mieszka": 6460,
      "poniedział": 6461,
      "skórę": 6462,
      "potrzebne": 6463,
      "poważnie": 6464,
      "gorzeli": 6465,
      "Rzymie": 6466,
      "Trudno": 6467,
      "Krzysztof": 6468,
      "Charłamp": 6469,
      "For": 6470,
      "Młody": 6471,
      "dnik": 6472,
      "ilu": 6473,
      "niegdzie": 6474,
      "następu": 6475,
      "zację": 6476,
      "kade": 6477,
      "widowi": 6478,
      "wyści": 6479,
      "woły": 6480,
      "nogą": 6481,
      "przestra": 6482,
      "odpowiadał": 6483,
      "przywiąza": 6484,
      "rozsze": 6485,
      "podkre": 6486,
      "dusze": 6487,
      "chan": 6488,
      "archi": 6489,
      "mówiono": 6490,
      "słabo": 6491,
      "Tauro": 6492,
      "Marusze": 6493,
      "twoich": 6494,
      "góż": 6495,
      "pewną": 6496,
      "ciągnie": 6497,
      "Podbi": 6498,
      "czerwca": 6499,
      "komunika": 6500,
      "chmury": 6501,
      "pracuje": 6502,
      "sekreta": 6503,
      "błąd": 6504,
      "gabine": 6505,
      "Ję": 6506,
      "Wro": 6507,
      "anio": 6508,
      "es": 6509,
      "spło": 6510,
      "naokół": 6511,
      "chowski": 6512,
      "poby": 6513,
      "wystąpi": 6514,
      "machu": 6515,
      "żyłem": 6516,
      "spoglądał": 6517,
      "znaczenie": 6518,
      "skaza": 6519,
      "powierz": 6520,
      "najgor": 6521,
      "słoni": 6522,
      "formy": 6523,
      "drzewo": 6524,
      "zmienić": 6525,
      "święta": 6526,
      "hono": 6527,
      "pamiętał": 6528,
      "kocham": 6529,
      "wrócili": 6530,
      "palce": 6531,
      "okres": 6532,
      "zamierza": 6533,
      "kulba": 6534,
      "świetle": 6535,
      "średni": 6536,
      "członków": 6537,
      "Prezy": 6538,
      "chleba": 6539,
      "Myślę": 6540,
      "oświadczył": 6541,
      "niebezpieczeństwo": 6542,
      "Ban": 6543,
      "ape": 6544,
      "pki": 6545,
      "żąc": 6546,
      "dztwo": 6547,
      "zasła": 6548,
      "ciło": 6549,
      "lesie": 6550,
      "paru": 6551,
      "matu": 6552,
      "ceny": 6553,
      "szele": 6554,
      "biała": 6555,
      "rozdzie": 6556,
      "rozmów": 6557,
      "spotyka": 6558,
      "sieci": 6559,
      "stolicy": 6560,
      "fii": 6561,
      "impe": 6562,
      "nioną": 6563,
      "nionym": 6564,
      "wielbłą": 6565,
      "działalność": 6566,
      "Były": 6567,
      "zostaną": 6568,
      "gniewem": 6569,
      "ciemno": 6570,
      "Marszał": 6571,
      "zgoła": 6572,
      "glądali": 6573,
      "diabeł": 6574,
      "zabić": 6575,
      "spotkania": 6576,
      "Bur": 6577,
      "powinno": 6578,
      "korzysta": 6579,
      "królewskiej": 6580,
      "prezenta": 6581,
      "Spoj": 6582,
      "szeregi": 6583,
      "Tadeusza": 6584,
      "okrzyki": 6585,
      "pomóc": 6586,
      "Kwa": 6587,
      "cowi": 6588,
      "nna": 6589,
      "ppe": 6590,
      "poczci": 6591,
      "dor": 6592,
      "teo": 6593,
      "jazda": 6594,
      "mak": 6595,
      "dymu": 6596,
      "kując": 6597,
      "silnie": 6598,
      "boję": 6599,
      "życiem": 6600,
      "gdym": 6601,
      "niosło": 6602,
      "królem": 6603,
      "słyszę": 6604,
      "Tere": 6605,
      "chciało": 6606,
      "bronił": 6607,
      "Wielko": 6608,
      "małą": 6609,
      "przyjaź": 6610,
      "pismo": 6611,
      "uczuł": 6612,
      "ogromny": 6613,
      "wartość": 6614,
      "dodatku": 6615,
      "istnieje": 6616,
      "religij": 6617,
      "potrzebuje": 6618,
      "Podbipię": 6619,
      "Cały": 6620,
      "Ojcie": 6621,
      "Skar": 6622,
      "fię": 6623,
      "mowała": 6624,
      "pokazy": 6625,
      "wanych": 6626,
      "wolu": 6627,
      "stanęła": 6628,
      "boki": 6629,
      "boży": 6630,
      "żynie": 6631,
      "skimi": 6632,
      "owicie": 6633,
      "owicza": 6634,
      "Nieraz": 6635,
      "mery": 6636,
      "swobod": 6637,
      "lubię": 6638,
      "złoty": 6639,
      "chcecie": 6640,
      "klasztor": 6641,
      "trybu": 6642,
      "miałam": 6643,
      "obecnych": 6644,
      "służbę": 6645,
      "cjon": 6646,
      "Mówił": 6647,
      "Kir": 6648,
      "kancle": 6649,
      "słuszność": 6650,
      "Ojciec": 6651,
      "Bro": 6652,
      "Rę": 6653,
      "Zgorzeli": 6654,
      "jne": 6655,
      "kłu": 6656,
      "opowiadać": 6657,
      "pl": 6658,
      "płó": 6659,
      "usił": 6660,
      "zorganiz": 6661,
      "św": 6662,
      "pozostały": 6663,
      "ramieniu": 6664,
      "linii": 6665,
      "zabój": 6666,
      "wodo": 6667,
      "przepa": 6668,
      "miesię": 6669,
      "przywie": 6670,
      "pust": 6671,
      "niosł": 6672,
      "czuć": 6673,
      "trwało": 6674,
      "zawoła": 6675,
      "grunt": 6676,
      "krzesła": 6677,
      "eks": 6678,
      "stanowią": 6679,
      "autor": 6680,
      "spojrzenia": 6681,
      "wysoki": 6682,
      "ktual": 6683,
      "Bogusława": 6684,
      "Solidar": 6685,
      "Europy": 6686,
      "tmosfe": 6687,
      "połowy": 6688,
      "tygodnie": 6689,
      "Słysz": 6690,
      "Krakowa": 6691,
      "wystarczy": 6692,
      "charakter": 6693,
      "Ursus": 6694,
      "wtóre": 6695,
      "DZ": 6696,
      "Pal": 6697,
      "Zoba": 6698,
      "are": 6699,
      "kwo": 6700,
      "sprzed": 6701,
      "źród": 6702,
      "pomi": 6703,
      "strą": 6704,
      "strów": 6705,
      "tara": 6706,
      "wypoczy": 6707,
      "dano": 6708,
      "staran": 6709,
      "owanego": 6710,
      "sal": 6711,
      "pragnął": 6712,
      "roztrop": 6713,
      "wiarę": 6714,
      "Napole": 6715,
      "armii": 6716,
      "czących": 6717,
      "sławy": 6718,
      "tenczas": 6719,
      "śnieg": 6720,
      "wojsku": 6721,
      "droż": 6722,
      "długą": 6723,
      "dźmy": 6724,
      "księciem": 6725,
      "pokor": 6726,
      "samochód": 6727,
      "wemu": 6728,
      "mieszkanie": 6729,
      "Podczas": 6730,
      "lepszy": 6731,
      "dziękuję": 6732,
      "zdumieniem": 6733,
      "decyzji": 6734,
      "Egipcie": 6735,
      "zginąć": 6736,
      "Jesteś": 6737,
      "zwłoki": 6738,
      "Mentezufis": 6739,
      "ON": 6740,
      "Zale": 6741,
      "plą": 6742,
      "rocznie": 6743,
      "lekar": 6744,
      "czyków": 6745,
      "ryba": 6746,
      "przesu": 6747,
      "odparła": 6748,
      "kule": 6749,
      "czają": 6750,
      "panną": 6751,
      "kłę": 6752,
      "czuję": 6753,
      "Wit": 6754,
      "samemu": 6755,
      "Dość": 6756,
      "odpowiedzieć": 6757,
      "międzynarod": 6758,
      "obawy": 6759,
      "194": 6760,
      "Bogiem": 6761,
      "dowany": 6762,
      "słowach": 6763,
      "nerw": 6764,
      "dobrych": 6765,
      "dobrej": 6766,
      "Egipcja": 6767,
      "wszelkich": 6768,
      "opieku": 6769,
      "Hen": 6770,
      "wpływ": 6771,
      "dwudziestu": 6772,
      "Póź": 6773,
      "Wąsowska": 6774,
      "Benedy": 6775,
      "Af": 6776,
      "akty": 6777,
      "mle": 6778,
      "ssa": 6779,
      "scho": 6780,
      "upraw": 6781,
      "wkę": 6782,
      "typu": 6783,
      "dziłem": 6784,
      "rozstrzy": 6785,
      "czonej": 6786,
      "miany": 6787,
      "ciąć": 6788,
      "myślała": 6789,
      "małej": 6790,
      "własny": 6791,
      "żołnierza": 6792,
      "polska": 6793,
      "dziwnie": 6794,
      "Myśli": 6795,
      "ratunku": 6796,
      "Chociaż": 6797,
      "Dzień": 6798,
      "języka": 6799,
      "wydobył": 6800,
      "centrum": 6801,
      "regular": 6802,
      "zrozumieć": 6803,
      "Idrys": 6804,
      "24": 6805,
      "27": 6806,
      "AWS": 6807,
      "Gi": 6808,
      "Nale": 6809,
      "kwar": 6810,
      "lskiemu": 6811,
      "opat": 6812,
      "tno": 6813,
      "zno": 6814,
      "złem": 6815,
      "nieszczęśli": 6816,
      "potrzą": 6817,
      "niczy": 6818,
      "dzki": 6819,
      "racja": 6820,
      "rzej": 6821,
      "kop": 6822,
      "lasach": 6823,
      "mane": 6824,
      "mary": 6825,
      "cien": 6826,
      "kula": 6827,
      "przyjąć": 6828,
      "cono": 6829,
      "biry": 6830,
      "dekla": 6831,
      "wiając": 6832,
      "podję": 6833,
      "Poz": 6834,
      "najpierw": 6835,
      "Chodź": 6836,
      "straży": 6837,
      "hau": 6838,
      "żebyś": 6839,
      "głosowania": 6840,
      "ustaw": 6841,
      "pięknie": 6842,
      "Najświęt": 6843,
      "telefon": 6844,
      "małym": 6845,
      "wzięli": 6846,
      "krajów": 6847,
      "Kozacy": 6848,
      "Rzym": 6849,
      "słyszeli": 6850,
      "województwa": 6851,
      "klejno": 6852,
      "Ofi": 6853,
      "ary": 6854,
      "atmosfe": 6855,
      "ger": 6856,
      "snym": 6857,
      "tchu": 6858,
      "wbrew": 6859,
      "zwró": 6860,
      "chowy": 6861,
      "pobi": 6862,
      "popu": 6863,
      "popeł": 6864,
      "owca": 6865,
      "rosną": 6866,
      "rzeka": 6867,
      "jesie": 6868,
      "kapli": 6869,
      "tyczne": 6870,
      "czyny": 6871,
      "przytu": 6872,
      "przyszli": 6873,
      "bać": 6874,
      "dur": 6875,
      "duszą": 6876,
      "Jacek": 6877,
      "ziono": 6878,
      "grać": 6879,
      "drudzy": 6880,
      "gęsto": 6881,
      "prowadzenia": 6882,
      "rzędzie": 6883,
      "Panu": 6884,
      "mniejsze": 6885,
      "pokoj": 6886,
      "PiS": 6887,
      "wydawał": 6888,
      "bywają": 6889,
      "biorą": 6890,
      "fotelu": 6891,
      "nagrody": 6892,
      "spółki": 6893,
      "wstrę": 6894,
      "bogini": 6895,
      "Bogdańca": 6896,
      "Tę": 6897,
      "sfor": 6898,
      "ulu": 6899,
      "układ": 6900,
      "narodu": 6901,
      "czku": 6902,
      "ponow": 6903,
      "pokazał": 6904,
      "rośnie": 6905,
      "zabiera": 6906,
      "tacji": 6907,
      "wyszli": 6908,
      "bią": 6909,
      "spon": 6910,
      "senato": 6911,
      "czące": 6912,
      "wzru": 6913,
      "braku": 6914,
      "Toteż": 6915,
      "Lepiej": 6916,
      "złożyć": 6917,
      "rodziców": 6918,
      "patrzyła": 6919,
      "szczyt": 6920,
      "odez": 6921,
      "zwycięstwa": 6922,
      "Słuchaj": 6923,
      "kolor": 6924,
      "załat": 6925,
      "cjonari": 6926,
      "jeźdźców": 6927,
      "Małgo": 6928,
      "Sko": 6929,
      "Zbi": 6930,
      "knąć": 6931,
      "ory": 6932,
      "chła": 6933,
      "rator": 6934,
      "ramach": 6935,
      "owszem": 6936,
      "rola": 6937,
      "rzeczą": 6938,
      "tatu": 6939,
      "boli": 6940,
      "sadza": 6941,
      "lubił": 6942,
      "prawej": 6943,
      "szabli": 6944,
      "Nastała": 6945,
      "ari": 6946,
      "zują": 6947,
      "impre": 6948,
      "pierście": 6949,
      "płacz": 6950,
      "bronią": 6951,
      "dium": 6952,
      "Byłem": 6953,
      "dziane": 6954,
      "walić": 6955,
      "Anzel": 6956,
      "świętego": 6957,
      "obowiąza": 6958,
      "bezpieczeństwa": 6959,
      "mieczem": 6960,
      "gorącz": 6961,
      "rzucili": 6962,
      "zawiera": 6963,
      "Helena": 6964,
      "Kościo": 6965,
      "codziennie": 6966,
      "kapitał": 6967,
      "niespodzianie": 6968,
      "Kan": 6969,
      "Nim": 6970,
      "WA": 6971,
      "ccy": 6972,
      "gała": 6973,
      "wcy": 6974,
      "wkoło": 6975,
      "Ów": 6976,
      "ńsku": 6977,
      "lim": 6978,
      "zamor": 6979,
      "zamyka": 6980,
      "miony": 6981,
      "ładnie": 6982,
      "wyrzu": 6983,
      "wyrok": 6984,
      "przemy": 6985,
      "dyplo": 6986,
      "szyli": 6987,
      "stanęli": 6988,
      "obró": 6989,
      "boja": 6990,
      "gia": 6991,
      "synem": 6992,
      "najprędzej": 6993,
      "czuła": 6994,
      "Mamy": 6995,
      "guje": 6996,
      "cjami": 6997,
      "słońcu": 6998,
      "młode": 6999,
      "Czym": 7000,
      "umrzeć": 7001,
      "gardło": 7002,
      "genera": 7003,
      "pręd": 7004,
      "ludzka": 7005,
      "ludzką": 7006,
      "ślady": 7007,
      "telef": 7008,
      "zamiesza": 7009,
      "południa": 7010,
      "dziewczynę": 7011,
      "westch": 7012,
      "programu": 7013,
      "warunkach": 7014,
      "gwiazd": 7015,
      "Kozaków": 7016,
      "Zygmu": 7017,
      "Mel": 7018,
      "Try": 7019,
      "XIII": 7020,
      "Związ": 7021,
      "ktem": 7022,
      "ncji": 7023,
      "zon": 7024,
      "zwro": 7025,
      "niechaj": 7026,
      "niało": 7027,
      "nigdzie": 7028,
      "liny": 7029,
      "zamy": 7030,
      "wypraw": 7031,
      "wykła": 7032,
      "dama": 7033,
      "danych": 7034,
      "siód": 7035,
      "czasami": 7036,
      "gania": 7037,
      "pij": 7038,
      "podwó": 7039,
      "lom": 7040,
      "czoła": 7041,
      "Wiśni": 7042,
      "pewność": 7043,
      "krzyczeć": 7044,
      "złość": 7045,
      "Być": 7046,
      "Libij": 7047,
      "mieszkańcy": 7048,
      "rozumiesz": 7049,
      "Muszę": 7050,
      "rozmawiał": 7051,
      "Gospo": 7052,
      "ochotę": 7053,
      "Eury": 7054,
      "Choćby": 7055,
      "Policja": 7056,
      "Telemach": 7057,
      "folwar": 7058,
      "CK": 7059,
      "NIE": 7060,
      "ld": 7061,
      "sprzeci": 7062,
      "posił": 7063,
      "goście": 7064,
      "zamyślił": 7065,
      "kos": 7066,
      "pacje": 7067,
      "wybi": 7068,
      "dzią": 7069,
      "dania": 7070,
      "odszedł": 7071,
      "dyscypli": 7072,
      "żyją": 7073,
      "gając": 7074,
      "niejsi": 7075,
      "cham": 7076,
      "burzy": 7077,
      "brali": 7078,
      "som": 7079,
      "dencji": 7080,
      "premier": 7081,
      "walce": 7082,
      "lepszego": 7083,
      "gnał": 7084,
      "stanowiska": 7085,
      "dłonią": 7086,
      "zwierza": 7087,
      "Kukli": 7088,
      "właściciel": 7089,
      "spał": 7090,
      "gromady": 7091,
      "Danvel": 7092,
      "rozpaczy": 7093,
      "Korde": 7094,
      "informacje": 7095,
      "dobrodziej": 7096,
      "obyczaj": 7097,
      "poczucie": 7098,
      "obywatel": 7099,
      "tytuł": 7100,
      "biskup": 7101,
      "umarł": 7102,
      "XIX": 7103,
      "śmiać": 7104,
      "Gerwazy": 7105,
      "rezulta": 7106,
      "powierzchni": 7107,
      "uzasa": 7108,
      "niezbyt": 7109,
      "niezależ": 7110,
      "szku": 7111,
      "pokło": 7112,
      "jemnie": 7113,
      "zao": 7114,
      "zastrze": 7115,
      "kość": 7116,
      "tana": 7117,
      "jadę": 7118,
      "pacie": 7119,
      "wydawało": 7120,
      "masze": 7121,
      "oddali": 7122,
      "stanąć": 7123,
      "piąc": 7124,
      "jutrze": 7125,
      "puste": 7126,
      "ciach": 7127,
      "rowany": 7128,
      "świade": 7129,
      "Widziałem": 7130,
      "słycha": 7131,
      "ląkł": 7132,
      "prowadzenie": 7133,
      "świeżo": 7134,
      "młoda": 7135,
      "zostaje": 7136,
      "wejść": 7137,
      "karcz": 7138,
      "Podla": 7139,
      "domem": 7140,
      "powiedziałem": 7141,
      "towarzystwie": 7142,
      "Dziew": 7143,
      "Dzieci": 7144,
      "berg": 7145,
      "handlu": 7146,
      "Pięk": 7147,
      "Aha": 7148,
      "PZ": 7149,
      "Zdr": 7150,
      "oszu": 7151,
      "uspo": 7152,
      "usługi": 7153,
      "zmian": 7154,
      "napisał": 7155,
      "gościa": 7156,
      "zabrać": 7157,
      "lecie": 7158,
      "wynik": 7159,
      "ryb": 7160,
      "majda": 7161,
      "stawi": 7162,
      "owanej": 7163,
      "mul": 7164,
      "sześciu": 7165,
      "boska": 7166,
      "rozpoczął": 7167,
      "zen": 7168,
      "bierz": 7169,
      "log": 7170,
      "skając": 7171,
      "powietrza": 7172,
      "budził": 7173,
      "pytam": 7174,
      "siąść": 7175,
      "ogniu": 7176,
      "cudow": 7177,
      "śmiech": 7178,
      "trwał": 7179,
      "zostawił": 7180,
      "honor": 7181,
      "pracował": 7182,
      "piasku": 7183,
      "Żydzi": 7184,
      "firma": 7185,
      "trudności": 7186,
      "ochrony": 7187,
      "Anusia": 7188,
      "obiad": 7189,
      "Chwilami": 7190,
      "26": 7191,
      "Han": 7192,
      "Ich": 7193,
      "Idź": 7194,
      "nty": 7195,
      "tór": 7196,
      "ucał": 7197,
      "umysł": 7198,
      "zgra": 7199,
      "pot": 7200,
      "ownie": 7201,
      "domo": 7202,
      "patro": 7203,
      "pamią": 7204,
      "wychodzi": 7205,
      "wynosi": 7206,
      "wyprawy": 7207,
      "nozd": 7208,
      "prace": 7209,
      "gali": 7210,
      "rozpoczę": 7211,
      "zewnątrz": 7212,
      "biesia": 7213,
      "podle": 7214,
      "duchy": 7215,
      "żonego": 7216,
      "śmiejąc": 7217,
      "soli": 7218,
      "Konie": 7219,
      "Komu": 7220,
      "złoci": 7221,
      "szkoda": 7222,
      "szonym": 7223,
      "Więk": 7224,
      "drżą": 7225,
      "głębie": 7226,
      "polityki": 7227,
      "chłopca": 7228,
      "największym": 7229,
      "miłościwy": 7230,
      "szwedzkie": 7231,
      "Europie": 7232,
      "Augu": 7233,
      "niezmiernie": 7234,
      "próbował": 7235,
      "ozwały": 7236,
      "lipca": 7237,
      "szablą": 7238,
      "gałęzi": 7239,
      "))": 7240,
      "21": 7241,
      "lla": 7242,
      "usług": 7243,
      "ułat": 7244,
      "włą": 7245,
      "yhm": 7246,
      "niespokoj": 7247,
      "poj": 7248,
      "racze": 7249,
      "roczy": 7250,
      "koali": 7251,
      "wypada": 7252,
      "latar": 7253,
      "odby": 7254,
      "przykry": 7255,
      "ruchy": 7256,
      "żywa": 7257,
      "dentów": 7258,
      "róża": 7259,
      "szaty": 7260,
      "podnosząc": 7261,
      "chali": 7262,
      "wojskiem": 7263,
      "fakt": 7264,
      "umowy": 7265,
      "Wokulskiemu": 7266,
      "znajdują": 7267,
      "nkowie": 7268,
      "ruszyła": 7269,
      "tryum": 7270,
      "Marta": 7271,
      "ziemią": 7272,
      "ostatniego": 7273,
      "największą": 7274,
      "patrzą": 7275,
      "powtarzać": 7276,
      "okrzyk": 7277,
      "przestrzeni": 7278,
      "związane": 7279,
      "głąb": 7280,
      "oddech": 7281,
      "Mikołaj": 7282,
      "premiera": 7283,
      "ekonomi": 7284,
      "kowo": 7285,
      "zgła": 7286,
      "śpią": 7287,
      "owską": 7288,
      "roman": 7289,
      "liby": 7290,
      "likwi": 7291,
      "zara": 7292,
      "les": 7293,
      "wyjeżdża": 7294,
      "dziwa": 7295,
      "lając": 7296,
      "kub": 7297,
      "mierz": 7298,
      "czeli": 7299,
      "pieczę": 7300,
      "niejszej": 7301,
      "najpięk": 7302,
      "czonego": 7303,
      "służył": 7304,
      "skoczy": 7305,
      "nięta": 7306,
      "rządek": 7307,
      "Rada": 7308,
      "byłam": 7309,
      "kazały": 7310,
      "Szlach": 7311,
      "kroku": 7312,
      "Przypom": 7313,
      "dziad": 7314,
      "pędził": 7315,
      "święto": 7316,
      "pisarz": 7317,
      "przyjaciela": 7318,
      "czekając": 7319,
      "prowadziła": 7320,
      "rzucać": 7321,
      "dowiedzieć": 7322,
      "westchnął": 7323,
      "modlitwy": 7324,
      "Wszakże": 7325,
      "Twarz": 7326,
      "Fun": 7327,
      "Ost": 7328,
      "Wnet": 7329,
      "idę": 7330,
      "towych": 7331,
      "twej": 7332,
      "uma": 7333,
      "usie": 7334,
      "ukazy": 7335,
      "wnu": 7336,
      "pocho": 7337,
      "zacznie": 7338,
      "zapowiada": 7339,
      "wyba": 7340,
      "wiec": 7341,
      "wieków": 7342,
      "czyźni": 7343,
      "dzieliśmy": 7344,
      "lana": 7345,
      "oddy": 7346,
      "objął": 7347,
      "przywo": 7348,
      "przyniósł": 7349,
      "piła": 7350,
      "rozmyśla": 7351,
      "Zapo": 7352,
      "Zakon": 7353,
      "orszak": 7354,
      "władze": 7355,
      "zdjął": 7356,
      "pełną": 7357,
      "Stawska": 7358,
      "złoto": 7359,
      "towania": 7360,
      "podobnie": 7361,
      "całych": 7362,
      "walkę": 7363,
      "polega": 7364,
      "określa": 7365,
      "liczba": 7366,
      "budowy": 7367,
      "sierpnia": 7368,
      "uczuć": 7369,
      "Polacy": 7370,
      "stosunku": 7371,
      "chleb": 7372,
      "zdrajca": 7373,
      "policjanci": 7374,
      "września": 7375,
      "Zbyszkowi": 7376,
      "Prus": 7377,
      "czambu": 7378,
      "Akte": 7379,
      "zakresie": 7380,
      "akurat": 7381,
      "tygodniu": 7382,
      "28": 7383,
      "Gór": 7384,
      "Pró": 7385,
      "Pół": 7386,
      "bnie": 7387,
      "cko": 7388,
      "hry": 7389,
      "nną": 7390,
      "nnego": 7391,
      "nkami": 7392,
      "opad": 7393,
      "towej": 7394,
      "zow": 7395,
      "poprzez": 7396,
      "pokazać": 7397,
      "niny": 7398,
      "niło": 7399,
      "gorz": 7400,
      "koty": 7401,
      "tech": 7402,
      "dzikie": 7403,
      "odrę": 7404,
      "moty": 7405,
      "sil": 7406,
      "muję": 7407,
      "szabel": 7408,
      "siero": 7409,
      "indziej": 7410,
      "Jaro": 7411,
      "miary": 7412,
      "bracie": 7413,
      "bramą": 7414,
      "Wojcie": 7415,
      "myśląc": 7416,
      "Rodzi": 7417,
      "wolny": 7418,
      "majątku": 7419,
      "czarow": 7420,
      "Biał": 7421,
      "szeptał": 7422,
      "piątek": 7423,
      "przedstawia": 7424,
      "zwycięz": 7425,
      "rzucając": 7426,
      "biorąc": 7427,
      "wcześnie": 7428,
      "przekonać": 7429,
      "powagą": 7430,
      "wspaniały": 7431,
      "Izra": 7432,
      "Sma": 7433,
      "Zd": 7434,
      "fro": 7435,
      "trium": 7436,
      "unik": 7437,
      "wchodzi": 7438,
      "zin": 7439,
      "zgodzi": 7440,
      "niedługo": 7441,
      "napełni": 7442,
      "owdzie": 7443,
      "wyła": 7444,
      "przepisy": 7445,
      "szyła": 7446,
      "defi": 7447,
      "znaki": 7448,
      "skami": 7449,
      "senator": 7450,
      "Chrepti": 7451,
      "sławę": 7452,
      "bramę": 7453,
      "ris": 7454,
      "światem": 7455,
      "Tyś": 7456,
      "Rozło": 7457,
      "mentem": 7458,
      "ważnie": 7459,
      "grudnia": 7460,
      "!”,": 7461,
      "palcami": 7462,
      "kazując": 7463,
      "możliwość": 7464,
      "zapach": 7465,
      "wyjazd": 7466,
      "wniosku": 7467,
      "księżyca": 7468,
      "Obaj": 7469,
      "DA": 7470,
      "Obie": 7471,
      "Uważa": 7472,
      "rię": 7473,
      "wręcz": 7474,
      "czół": 7475,
      "lewej": 7476,
      "karze": 7477,
      "waria": 7478,
      "paty": 7479,
      "nety": 7480,
      "malu": 7481,
      "maję": 7482,
      "przymie": 7483,
      "biur": 7484,
      "znasz": 7485,
      "siedzieli": 7486,
      "proponu": 7487,
      "Nareszcie": 7488,
      "kędy": 7489,
      "Chcę": 7490,
      "bliska": 7491,
      "barba": 7492,
      "granicę": 7493,
      "każdemu": 7494,
      "diu": 7495,
      "chęci": 7496,
      "Zagłobę": 7497,
      "gruby": 7498,
      "walka": 7499,
      "zwierz": 7500,
      "środki": 7501,
      "Biało": 7502,
      "obronie": 7503,
      "znalazła": 7504,
      "Cieka": 7505,
      "kwiatów": 7506,
      "kontroli": 7507,
      "dodatk": 7508,
      "dzierża": 7509,
      "funda": 7510,
      "Kazimierza": 7511,
      "herba": 7512,
      "Słońce": 7513,
      "Cała": 7514,
      "OS": 7515,
      "Sąd": 7516,
      "Wkrótce": 7517,
      "ochło": 7518,
      "ozdo": 7519,
      "upa": 7520,
      "zrę": 7521,
      "zbój": 7522,
      "śnią": 7523,
      "ślą": 7524,
      "niesio": 7525,
      "niesłycha": 7526,
      "naro": 7527,
      "powy": 7528,
      "poję": 7529,
      "pochwy": 7530,
      "podzię": 7531,
      "liści": 7532,
      "zapał": 7533,
      "dodała": 7534,
      "jacy": 7535,
      "tyj": 7536,
      "dziemy": 7537,
      "stają": 7538,
      "silne": 7539,
      "przyznać": 7540,
      "biu": 7541,
      "rósł": 7542,
      "mecha": 7543,
      "póty": 7544,
      "mięsa": 7545,
      "równy": 7546,
      "nti": 7547,
      "dzeni": 7548,
      "rowali": 7549,
      "rowane": 7550,
      "granic": 7551,
      "Stawskiej": 7552,
      "abyś": 7553,
      "ustami": 7554,
      "drapie": 7555,
      "Jużci": 7556,
      "głym": 7557,
      "prowadzili": 7558,
      "milionów": 7559,
      "opiekę": 7560,
      "krzyknęła": 7561,
      "muzyka": 7562,
      "Radziwiłła": 7563,
      "wstrzymał": 7564,
      "waszmościowie": 7565,
      "realiz": 7566,
      "uważał": 7567,
      "całkowicie": 7568,
      "klasztoru": 7569,
      "Sakowicz": 7570,
      "Ate": 7571,
      "Skoro": 7572,
      "Słowa": 7573,
      "bny": 7574,
      "gród": 7575,
      "krza": 7576,
      "ntem": 7577,
      "pkt": 7578,
      "psów": 7579,
      "tką": 7580,
      "twych": 7581,
      "wpada": 7582,
      "zwia": 7583,
      "żnych": 7584,
      "niewy": 7585,
      "niebu": 7586,
      "szwa": 7587,
      "dości": 7588,
      "torzy": 7589,
      "przewa": 7590,
      "przechy": 7591,
      "przemysł": 7592,
      "mazowie": 7593,
      "mogi": 7594,
      "nących": 7595,
      "życ": 7596,
      "żywy": 7597,
      "piwa": 7598,
      "zezna": 7599,
      "szable": 7600,
      "prof": 7601,
      "puszczy": 7602,
      "Jaka": 7603,
      "głosie": 7604,
      "ogrod": 7605,
      "czole": 7606,
      "waćpana": 7607,
      "krajach": 7608,
      "konsek": 7609,
      "lskim": 7610,
      "młodzieży": 7611,
      "gdybyś": 7612,
      "blady": 7613,
      "szczał": 7614,
      "spadł": 7615,
      "wróciwszy": 7616,
      "ogrodu": 7617,
      "widzial": 7618,
      "mężów": 7619,
      "Soroka": 7620,
      "renty": 7621,
      "rencji": 7622,
      "kultury": 7623,
      "Petroniusza": 7624,
      "ambi": 7625,
      "obycza": 7626,
      "dyskusji": 7627,
      "ostrożnie": 7628,
      "Szczegó": 7629,
      "zwracając": 7630,
      "umilkł": 7631,
      "telewizji": 7632,
      "Gie": 7633,
      "Mracze": 7634,
      "RP": 7635,
      "Znam": 7636,
      "foto": 7637,
      "kcję": 7638,
      "nności": 7639,
      "smy": 7640,
      "snę": 7641,
      "tały": 7642,
      "wce": 7643,
      "zją": 7644,
      "niewie": 7645,
      "nadej": 7646,
      "rzecze": 7647,
      "zatrzymy": 7648,
      "don": 7649,
      "winien": 7650,
      "waniem": 7651,
      "wywie": 7652,
      "ryzy": 7653,
      "rysu": 7654,
      "przeło": 7655,
      "przebra": 7656,
      "rezer": 7657,
      "dyspo": 7658,
      "mont": 7659,
      "starzec": 7660,
      "siod": 7661,
      "obrazy": 7662,
      "basa": 7663,
      "tudzież": 7664,
      "rozsąd": 7665,
      "biego": 7666,
      "podpisa": 7667,
      "siedziała": 7668,
      "synów": 7669,
      "wiązek": 7670,
      "ciągnęła": 7671,
      "młodzież": 7672,
      "kroki": 7673,
      "płynął": 7674,
      "ciemne": 7675,
      "placów": 7676,
      "spekty": 7677,
      "głęb": 7678,
      "Polskiej": 7679,
      "gotowe": 7680,
      "Inter": 7681,
      "Szwedom": 7682,
      "budowę": 7683,
      "obowiązek": 7684,
      "Labiry": 7685,
      "córkę": 7686,
      "litew": 7687,
      "psycho": 7688,
      "wielkości": 7689,
      "itp": 7690,
      "Telimena": 7691,
      "Memfi": 7692,
      "29": 7693,
      "Ozy": 7694,
      "Obok": 7695,
      "gl": 7696,
      "hał": 7697,
      "ili": 7698,
      "mno": 7699,
      "nnym": 7700,
      "odz": 7701,
      "pnie": 7702,
      "żni": 7703,
      "cznika": 7704,
      "chó": 7705,
      "chwa": 7706,
      "szkół": 7707,
      "niły": 7708,
      "winem": 7709,
      "żeśmy": 7710,
      "ówdzie": 7711,
      "dziesz": 7712,
      "rym": 7713,
      "ryby": 7714,
      "odmie": 7715,
      "odczu": 7716,
      "mocą": 7717,
      "przynosi": 7718,
      "jedź": 7719,
      "anu": 7720,
      "orą": 7721,
      "bezrobo": 7722,
      "granicą": 7723,
      "fakty": 7724,
      "Rosji": 7725,
      "Rosja": 7726,
      "początek": 7727,
      "Wielu": 7728,
      "mniejsza": 7729,
      "dziana": 7730,
      "zdarza": 7731,
      "grupa": 7732,
      "Pew": 7733,
      "przyjaciele": 7734,
      "dziwny": 7735,
      "szczególniej": 7736,
      "wzięła": 7737,
      "kolejne": 7738,
      "chrześcijan": 7739,
      "udziału": 7740,
      "prywaty": 7741,
      "choroby": 7742,
      "oglądać": 7743,
      "cofnął": 7744,
      "bohater": 7745,
      "Wojewódz": 7746,
      "Podkomorzy": 7747,
      "okoliczności": 7748,
      "poniedziałek": 7749,
      "70": 7750,
      "??": 7751,
      "Nowa": 7752,
      "Stu": 7753,
      "Strze": 7754,
      "gda": 7755,
      "opuszcza": 7756,
      "towe": 7757,
      "zrazu": 7758,
      "ÓR": 7759,
      "napisa": 7760,
      "chł": 7761,
      "potom": 7762,
      "wiona": 7763,
      "pań": 7764,
      "papiero": 7765,
      "wyniku": 7766,
      "nosa": 7767,
      "cenę": 7768,
      "cyr": 7769,
      "rozwoju": 7770,
      "delega": 7771,
      "podjazd": 7772,
      "stojąc": 7773,
      "lotni": 7774,
      "argu": 7775,
      "ogląd": 7776,
      "władza": 7777,
      "barwy": 7778,
      "Widział": 7779,
      "parcie": 7780,
      "konty": 7781,
      "wąsi": 7782,
      "trwała": 7783,
      "trwały": 7784,
      "chcemy": 7785,
      "darmo": 7786,
      "pamiętać": 7787,
      "kilkudziesięciu": 7788,
      "starym": 7789,
      "morder": 7790,
      "sens": 7791,
      "ostatnio": 7792,
      "dalszych": 7793,
      "palcem": 7794,
      "służb": 7795,
      "publicznych": 7796,
      "kolejny": 7797,
      "dostojny": 7798,
      "pozycji": 7799,
      "potrafił": 7800,
      "znajomy": 7801,
      "połowę": 7802,
      "Rzymu": 7803,
      "jesteście": 7804,
      "napast": 7805,
      "budynku": 7806,
      "punktu": 7807,
      "Billewiczów": 7808,
      "CKM": 7809,
      "Dal": 7810,
      "Fau": 7811,
      "Pla": 7812,
      "grywa": 7813,
      "hr": 7814,
      "onej": 7815,
      "opoda": 7816,
      "ucho": 7817,
      "wstę": 7818,
      "rzekę": 7819,
      "cichu": 7820,
      "kij": 7821,
      "czytel": 7822,
      "przele": 7823,
      "odci": 7824,
      "cieniu": 7825,
      "dygni": 7826,
      "mono": 7827,
      "oble": 7828,
      "objęcia": 7829,
      "przyda": 7830,
      "owaną": 7831,
      "któr": 7832,
      "biją": 7833,
      "podwój": 7834,
      "skorzy": 7835,
      "Taka": 7836,
      "niemało": 7837,
      "Mazu": 7838,
      "zostawić": 7839,
      "chłopiec": 7840,
      "szonych": 7841,
      "Żyd": 7842,
      "sędzia": 7843,
      "sytuacja": 7844,
      "gwiazda": 7845,
      "Pierwsze": 7846,
      "stopniu": 7847,
      "niebawem": 7848,
      "prowadzono": 7849,
      "miłosierdzie": 7850,
      "przykładem": 7851,
      "Rober": 7852,
      "Żołnierze": 7853,
      "Słyszałem": 7854,
      "Wiśniowie": 7855,
      "Dą": 7856,
      "Glau": 7857,
      "Lo": 7858,
      "Lich": 7859,
      "dran": 7860,
      "hod": 7861,
      "ww": 7862,
      "zgry": 7863,
      "nać": 7864,
      "cznością": 7865,
      "szcząc": 7866,
      "kozac": 7867,
      "dozor": 7868,
      "mis": 7869,
      "kin": 7870,
      "pastu": 7871,
      "dziewi": 7872,
      "magał": 7873,
      "kupił": 7874,
      "bogom": 7875,
      "biony": 7876,
      "rozło": 7877,
      "szach": 7878,
      "znany": 7879,
      "gią": 7880,
      "Poza": 7881,
      "sypi": 7882,
      "anga": 7883,
      "Chami": 7884,
      "śmiechu": 7885,
      "krótki": 7886,
      "pewności": 7887,
      "studen": 7888,
      "Rasz": 7889,
      "formie": 7890,
      "karku": 7891,
      "walczyć": 7892,
      "kobietę": 7893,
      "śpiewać": 7894,
      "ludzki": 7895,
      "ogrodzie": 7896,
      "wskazał": 7897,
      "porusza": 7898,
      "wpływem": 7899,
      "rozpoczyna": 7900,
      "ORZA": 7901,
      "trakcie": 7902,
      "arcykapłan": 7903,
      "czapkę": 7904,
      "Jednocześnie": 7905,
      "Szkoda": 7906,
      "Azji": 7907,
      "Dok": 7908,
      "Fo": 7909,
      "Sia": 7910,
      "Wrze": 7911,
      "Znaj": 7912,
      "fale": 7913,
      "idź": 7914,
      "mowę": 7915,
      "ostry": 7916,
      "ptaki": 7917,
      "twe": 7918,
      "wli": 7919,
      "pozo": 7920,
      "pochodzi": 7921,
      "pochodzą": 7922,
      "stwu": 7923,
      "zadr": 7924,
      "komor": 7925,
      "pany": 7926,
      "wyobraź": 7927,
      "czynienia": 7928,
      "dziego": 7929,
      "many": 7930,
      "mawiać": 7931,
      "cielem": 7932,
      "jąwszy": 7933,
      "obchodzi": 7934,
      "ruj": 7935,
      "gadał": 7936,
      "stojący": 7937,
      "inżynie": 7938,
      "lonego": 7939,
      "Jedy": 7940,
      "sługa": 7941,
      "numer": 7942,
      "bram": 7943,
      "nięto": 7944,
      "świeży": 7945,
      "większym": 7946,
      "trzymając": 7947,
      "mieszkaniu": 7948,
      "193": 7949,
      "obiecy": 7950,
      "rodzice": 7951,
      "szlachtę": 7952,
      "światłem": 7953,
      "Lubi": 7954,
      "królowa": 7955,
      "Ktoś": 7956,
      "diabła": 7957,
      "mowali": 7958,
      "dzieckiem": 7959,
      "okazać": 7960,
      "hen": 7961,
      "mogłaby": 7962,
      "ludność": 7963,
      "Mógł": 7964,
      "zajęcia": 7965,
      "firm": 7966,
      "stosunki": 7967,
      "frag": 7968,
      "okręt": 7969,
      "Szuman": 7970,
      "niesiono": 7971,
      "cjum": 7972,
      "Chciałbym": 7973,
      "okien": 7974,
      "Bel": 7975,
      "Dia": 7976,
      "Ly": 7977,
      "Wał": 7978,
      "XX": 7979,
      "gnęła": 7980,
      "oszcze": 7981,
      "oporu": 7982,
      "schwy": 7983,
      "wsza": 7984,
      "naby": 7985,
      "poci": 7986,
      "pości": 7987,
      "poszczegó": 7988,
      "zaszło": 7989,
      "zajął": 7990,
      "dołu": 7991,
      "tabli": 7992,
      "teor": 7993,
      "toni": 7994,
      "nogę": 7995,
      "odtąd": 7996,
      "mieści": 7997,
      "obda": 7998,
      "obóz": 7999,
      "tuła": 8000,
      "zeum": 8001,
      "znane": 8002,
      "ginie": 8003,
      "media": 8004,
      "Natura": 8005,
      "bus": 8006,
      "Jeno": 8007,
      "prawem": 8008,
      "słowy": 8009,
      "będziecie": 8010,
      "giel": 8011,
      "pewnych": 8012,
      "Stan": 8013,
      "złotem": 8014,
      "dźwięk": 8015,
      "marca": 8016,
      "szum": 8017,
      "ścianę": 8018,
      "kark": 8019,
      "miastem": 8020,
      "jednostki": 8021,
      "zębami": 8022,
      "królowej": 8023,
      "służbie": 8024,
      "przejść": 8025,
      "Będę": 8026,
      "białym": 8027,
      "Sejmu": 8028,
      "skłonił": 8029,
      "Człowiek": 8030,
      "Robak": 8031,
      "Później": 8032,
      ">>": 8033,
      "Ameryka": 8034,
      "Grek": 8035,
      "Uj": 8036,
      "iny": 8037,
      "jny": 8038,
      "rwa": 8039,
      "sona": 8040,
      "uzy": 8041,
      "uprzej": 8042,
      "naty": 8043,
      "stemu": 8044,
      "nicza": 8045,
      "rot": 8046,
      "liczył": 8047,
      "cisz": 8048,
      "wita": 8049,
      "widzą": 8050,
      "respon": 8051,
      "weszła": 8052,
      "conych": 8053,
      "armat": 8054,
      "Jeremi": 8055,
      "czupry": 8056,
      "parku": 8057,
      "Szczęście": 8058,
      "Byle": 8059,
      "ścianie": 8060,
      "planowa": 8061,
      "cyjna": 8062,
      "zrobiła": 8063,
      "dziewczę": 8064,
      "Kiem": 8065,
      "spojrzenie": 8066,
      "bierać": 8067,
      "Reje": 8068,
      "największy": 8069,
      "staremu": 8070,
      "prezentu": 8071,
      "miesiąca": 8072,
      "ulicę": 8073,
      "Siła": 8074,
      "mieszkał": 8075,
      "przyczyną": 8076,
      "ataku": 8077,
      "Czuł": 8078,
      "----------------": 8079,
      "szablę": 8080,
      "Męż": 8081,
      "października": 8082,
      "Proku": 8083,
      "hrabia": 8084,
      "osobą": 8085,
      "von": 8086,
      "śnił": 8087,
      "nało": 8088,
      "czów": 8089,
      "postanowie": 8090,
      "licznych": 8091,
      "dokład": 8092,
      "doktor": 8093,
      "jaśniej": 8094,
      "wydać": 8095,
      "topo": 8096,
      "dziale": 8097,
      "odwrócił": 8098,
      "szyły": 8099,
      "bodaj": 8100,
      "bije": 8101,
      "rozpę": 8102,
      "Poto": 8103,
      "stolet": 8104,
      "tamtych": 8105,
      "Maciej": 8106,
      "Bodaj": 8107,
      "Widzisz": 8108,
      "padnie": 8109,
      "Domi": 8110,
      "robisz": 8111,
      "mógłbym": 8112,
      "tknął": 8113,
      "starał": 8114,
      "czarno": 8115,
      "towarzystwo": 8116,
      "Instytu": 8117,
      "dziwnego": 8118,
      "wołali": 8119,
      "kazali": 8120,
      "wyboru": 8121,
      "Zeus": 8122,
      "potężny": 8123,
      "gospodarki": 8124,
      "tajemnicy": 8125,
      "przyjęcie": 8126,
      "Herho": 8127,
      "kwadran": 8128,
      "najlepsze": 8129,
      "Francji": 8130,
      "trakta": 8131,
      "zwierzęta": 8132,
      "Aleksandra": 8133,
      "żądał": 8134,
      "Bor": 8135,
      "LI": 8136,
      "kcja": 8137,
      "oparł": 8138,
      "rował": 8139,
      "nasta": 8140,
      "chwała": 8141,
      "postrze": 8142,
      "poran": 8143,
      "stkę": 8144,
      "lice": 8145,
      "zastos": 8146,
      "lech": 8147,
      "kając": 8148,
      "bystro": 8149,
      "jaśnie": 8150,
      "przekro": 8151,
      "mania": 8152,
      "stacji": 8153,
      "silny": 8154,
      "przystoj": 8155,
      "przysłał": 8156,
      "pieli": 8157,
      "pielę": 8158,
      "cając": 8159,
      "bierał": 8160,
      "głej": 8161,
      "synu": 8162,
      "losy": 8163,
      "głośniej": 8164,
      "wałę": 8165,
      "lęk": 8166,
      "nume": 8167,
      "nionej": 8168,
      "wróż": 8169,
      "parta": 8170,
      "niętą": 8171,
      "konstru": 8172,
      "termi": 8173,
      "policzki": 8174,
      "znajdował": 8175,
      "Anna": 8176,
      "stąpiła": 8177,
      "powiadam": 8178,
      "żadnym": 8179,
      "potęgi": 8180,
      "minist": 8181,
      "rozumu": 8182,
      "uczucie": 8183,
      "starej": 8184,
      "gorąco": 8185,
      "czynności": 8186,
      "zapłacić": 8187,
      "trwogi": 8188,
      "stii": 8189,
      "zniknął": 8190,
      "odwagi": 8191,
      "Paryża": 8192,
      "środowiska": 8193,
      "adwokat": 8194,
      "Maruszewicz": 8195,
      "Wrocła": 8196,
      "90": 8197,
      "Powi": 8198,
      "epo": 8199,
      "okazał": 8200,
      "snem": 8201,
      "twą": 8202,
      "wpadła": 8203,
      "nakry": 8204,
      "naboże": 8205,
      "czko": 8206,
      "czało": 8207,
      "rając": 8208,
      "zacze": 8209,
      "zastał": 8210,
      "dasz": 8211,
      "larz": 8212,
      "resta": 8213,
      "cywili": 8214,
      "pras": 8215,
      "wiami": 8216,
      "sporo": 8217,
      "pance": 8218,
      "siedząc": 8219,
      "głodu": 8220,
      "niusz": 8221,
      "rzad": 8222,
      "tamten": 8223,
      "blio": 8224,
      "pewnej": 8225,
      "zdarzyło": 8226,
      "garść": 8227,
      "komple": 8228,
      "należ": 8229,
      "miłością": 8230,
      "Wokulskim": 8231,
      "czarnych": 8232,
      "gład": 8233,
      "skład": 8234,
      "otwarcie": 8235,
      "podejrza": 8236,
      "Właści": 8237,
      "Odysa": 8238,
      "wybuchnął": 8239,
      "tłumaczył": 8240,
      "wierzch": 8241,
      "Komisja": 8242,
      "regimenta": 8243,
      "MAŁ": 8244,
      "leżała": 8245,
      "demokra": 8246,
      "rozmaitych": 8247,
      "dragonów": 8248,
      "czterdzieści": 8249,
      "angiel": 8250,
      "stanowczo": 8251,
      "Dalej": 8252,
      "arysto": 8253,
      "Di": 8254,
      "Usta": 8255,
      "Zdaje": 8256,
      "dności": 8257,
      "nsów": 8258,
      "ubo": 8259,
      "uwzglę": 8260,
      "utrzymać": 8261,
      "vat": 8262,
      "wna": 8263,
      "czniej": 8264,
      "jenia": 8265,
      "gody": 8266,
      "żeb": 8267,
      "palą": 8268,
      "dziki": 8269,
      "nożem": 8270,
      "obi": 8271,
      "obcych": 8272,
      "bana": 8273,
      "tutej": 8274,
      "pirami": 8275,
      "setki": 8276,
      "bran": 8277,
      "tenste": 8278,
      "zią": 8279,
      "gram": 8280,
      "padło": 8281,
      "oczywi": 8282,
      "plany": 8283,
      "piękną": 8284,
      "Czehry": 8285,
      "sławny": 8286,
      "obecności": 8287,
      "Bedu": 8288,
      "zaczęło": 8289,
      "opieki": 8290,
      "Cicho": 8291,
      "Konstan": 8292,
      "urzędu": 8293,
      "kontra": 8294,
      "podobie": 8295,
      "wydoby": 8296,
      "sprawiedliwość": 8297,
      "stopnia": 8298,
      "wojennych": 8299,
      "żywności": 8300,
      "centra": 8301,
      "fałszy": 8302,
      "wencji": 8303,
      "leżały": 8304,
      "rzeczywistości": 8305,
      "ostatecznie": 8306,
      "dotyczące": 8307,
      "Józef": 8308,
      "Rozumiem": 8309,
      "Kwaśnie": 8310,
      "Bli": 8311,
      "TV": 8312,
      "Urzędu": 8313,
      "aha": 8314,
      "opu": 8315,
      "ubezpie": 8316,
      "upał": 8317,
      "łowy": 8318,
      "Świe": 8319,
      "następuje": 8320,
      "szały": 8321,
      "zawiado": 8322,
      "legi": 8323,
      "dodaje": 8324,
      "miną": 8325,
      "byście": 8326,
      "jać": 8327,
      "papier": 8328,
      "tona": 8329,
      "prześla": 8330,
      "odrzu": 8331,
      "stado": 8332,
      "sim": 8333,
      "szeniu": 8334,
      "baj": 8335,
      "piekie": 8336,
      "pieniu": 8337,
      "rozja": 8338,
      "znają": 8339,
      "znaczne": 8340,
      "Por": 8341,
      "butel": 8342,
      "zior": 8343,
      "fabry": 8344,
      "dzali": 8345,
      "reszta": 8346,
      "łąka": 8347,
      "Wiele": 8348,
      "płynęła": 8349,
      "...\"": 8350,
      "umieję": 8351,
      "rajta": 8352,
      "starczy": 8353,
      "zrobiło": 8354,
      "puściła": 8355,
      "spada": 8356,
      "towarzystwa": 8357,
      "godności": 8358,
      "dalsze": 8359,
      "czekają": 8360,
      "kamieni": 8361,
      "decyzję": 8362,
      "bogaty": 8363,
      "współczes": 8364,
      "ulicach": 8365,
      "prawidł": 8366,
      "Fara": 8367,
      "Zych": 8368,
      "lekarz": 8369,
      "większości": 8370,
      "niebezpieczeństwa": 8371,
      "wojowników": 8372,
      "uczestni": 8373,
      "poprawki": 8374,
      "budżetu": 8375,
      "postępowania": 8376,
      "dolarów": 8377,
      "popular": 8378,
      "dygnita": 8379,
      "Lichtenste": 8380,
      "<<": 8381,
      "GORZA": 8382,
      "Isto": 8383,
      "brą": 8384,
      "fin": 8385,
      "ukra": 8386,
      "utru": 8387,
      "wrę": 8388,
      "zwrócić": 8389,
      "nazy": 8390,
      "nazwa": 8391,
      "poła": 8392,
      "pokar": 8393,
      "podar": 8394,
      "strzę": 8395,
      "widz": 8396,
      "występu": 8397,
      "wolą": 8398,
      "rywał": 8399,
      "przepisów": 8400,
      "cela": 8401,
      "owań": 8402,
      "bile": 8403,
      "car": 8404,
      "szalał": 8405,
      "żając": 8406,
      "Jedni": 8407,
      "nicki": 8408,
      "skoczyć": 8409,
      "stępy": 8410,
      "zia": 8411,
      "waćpanu": 8412,
      "fala": 8413,
      "Roch": 8414,
      "dnienia": 8415,
      "podobną": 8416,
      "brały": 8417,
      "samorząd": 8418,
      "dwieście": 8419,
      "cyjnym": 8420,
      "dowania": 8421,
      "kapłana": 8422,
      "sprawą": 8423,
      "szlachtą": 8424,
      "pisała": 8425,
      "potęga": 8426,
      "ńcami": 8427,
      "straszna": 8428,
      "wziąwszy": 8429,
      "zbroi": 8430,
      "łódź": 8431,
      "nagrodę": 8432,
      "ogarnął": 8433,
      "Zosia": 8434,
      "tłumaczy": 8435,
      "normal": 8436,
      "sprzedaży": 8437,
      "zwróciwszy": 8438,
      "spadnie": 8439,
      "wzgórza": 8440,
      "przewodniczący": 8441,
      "CHÓR": 8442,
      "osiąg": 8443,
      "Serce": 8444,
      "Klucznik": 8445,
      "Europejskiej": 8446,
      "listopada": 8447,
      "emery": 8448,
      "Wszelako": 8449,
      "Kościoła": 8450,
      "Kordecki": 8451,
      "barbarzy": 8452,
      "MAŁGORZA": 8453,
      "35": 8454,
      "Ase": 8455,
      "Gar": 8456,
      "Mały": 8457,
      "Rz": 8458,
      "Usłyszawszy": 8459,
      "dróg": 8460,
      "opór": 8461,
      "rowo": 8462,
      "sowi": 8463,
      "zro": 8464,
      "ćwili": 8465,
      "niepodobna": 8466,
      "czno": 8467,
      "pono": 8468,
      "pojęcia": 8469,
      "niczych": 8470,
      "zanu": 8471,
      "wid": 8472,
      "jar": 8473,
      "wysyła": 8474,
      "dary": 8475,
      "przeczu": 8476,
      "odnale": 8477,
      "cienie": 8478,
      "rur": 8479,
      "sać": 8480,
      "wewnątrz": 8481,
      "piór": 8482,
      "piony": 8483,
      "łuk": 8484,
      "wiali": 8485,
      "wiatru": 8486,
      "stolnik": 8487,
      "częścią": 8488,
      "Zaćwili": 8489,
      "alnych": 8490,
      "trawy": 8491,
      "pełna": 8492,
      "termin": 8493,
      "uczyniła": 8494,
      "ciemnej": 8495,
      "placu": 8496,
      "portu": 8497,
      "zamknął": 8498,
      "czekaj": 8499,
      "matkę": 8500,
      "ujrzawszy": 8501,
      "zbrodni": 8502,
      "spotkaniu": 8503,
      "budować": 8504,
      "zajmuje": 8505,
      "pojadę": 8506,
      "Włady": 8507,
      "dojrzał": 8508,
      "wzrostu": 8509,
      "klubu": 8510,
      "braknie": 8511,
      "zakończył": 8512,
      "opinii": 8513,
      "słyszała": 8514,
      "badań": 8515,
      "marszałka": 8516,
      "strzelać": 8517,
      "roślin": 8518,
      "fikacji": 8519,
      "jancza": 8520,
      "Trybu": 8521,
      "bliote": 8522,
      "Amen": 8523,
      "WI": 8524,
      "dowski": 8525,
      "mode": 8526,
      "osobie": 8527,
      "spój": 8528,
      "spuszczo": 8529,
      "uwiel": 8530,
      "szmer": 8531,
      "pośle": 8532,
      "rają": 8533,
      "karę": 8534,
      "kiwał": 8535,
      "tet": 8536,
      "jadł": 8537,
      "wywia": 8538,
      "toczy": 8539,
      "tyś": 8540,
      "wiedzi": 8541,
      "wozie": 8542,
      "kieszeni": 8543,
      "czegóż": 8544,
      "przysta": 8545,
      "przysła": 8546,
      "rują": 8547,
      "podwyż": 8548,
      "duję": 8549,
      "Zakła": 8550,
      "powierzch": 8551,
      "głość": 8552,
      "sądzi": 8553,
      "ziom": 8554,
      "wrócę": 8555,
      "krzyczał": 8556,
      "Koniec": 8557,
      "trupów": 8558,
      "płynęły": 8559,
      "terro": 8560,
      "wejścia": 8561,
      "szość": 8562,
      "widokiem": 8563,
      "dziewka": 8564,
      "dziewki": 8565,
      "Krzysi": 8566,
      "zgodził": 8567,
      "potęgą": 8568,
      "Weź": 8569,
      "uczniów": 8570,
      "miastach": 8571,
      "perspekty": 8572,
      "smutku": 8573,
      "wyjścia": 8574,
      "dziedzińcu": 8575,
      "pałac": 8576,
      "kolanach": 8577,
      "komendę": 8578,
      "zdziwiony": 8579,
      "szlachcica": 8580,
      "mądry": 8581,
      "układy": 8582,
      "powrocie": 8583,
      "XVIII": 8584,
      "zatrzymali": 8585,
      "Świat": 8586,
      "dywidu": 8587,
      "Achi": 8588,
      "Cią": 8589,
      "IV": 8590,
      "klub": 8591,
      "oprze": 8592,
      "rie": 8593,
      "uprze": 8594,
      "usi": 8595,
      "zwal": 8596,
      "niebio": 8597,
      "szk": 8598,
      "pomoże": 8599,
      "pokaże": 8600,
      "dzała": 8601,
      "rzeczach": 8602,
      "litości": 8603,
      "zapan": 8604,
      "zakrę": 8605,
      "zadzwo": 8606,
      "leniu": 8607,
      "doby": 8608,
      "miodu": 8609,
      "łagod": 8610,
      "waszym": 8611,
      "pak": 8612,
      "wyprost": 8613,
      "czyńskiego": 8614,
      "mama": 8615,
      "boski": 8616,
      "bite": 8617,
      "biło": 8618,
      "bienie": 8619,
      "dując": 8620,
      "Poppe": 8621,
      "puta": 8622,
      "sekun": 8623,
      "jedne": 8624,
      "żach": 8625,
      "rzać": 8626,
      "Chciałem": 8627,
      "dzoną": 8628,
      "cięża": 8629,
      "Mazow": 8630,
      "tworzy": 8631,
      "ktorem": 8632,
      "gód": 8633,
      "Staro": 8634,
      "mężem": 8635,
      "gdzieniegdzie": 8636,
      "działać": 8637,
      "gniewa": 8638,
      "ciemność": 8639,
      "zdobyć": 8640,
      "takimi": 8641,
      "stanowił": 8642,
      "rodzina": 8643,
      "lekce": 8644,
      "lekcji": 8645,
      "zachować": 8646,
      "plecy": 8647,
      "kamienie": 8648,
      "małych": 8649,
      "szczęśliwie": 8650,
      "skończyć": 8651,
      "rozmowie": 8652,
      "nowiny": 8653,
      "komendy": 8654,
      "Demo": 8655,
      "długiej": 8656,
      "straszliwy": 8657,
      "rodzaj": 8658,
      "egzami": 8659,
      "energii": 8660,
      "rozmawiali": 8661,
      "łóżka": 8662,
      "Kościół": 8663,
      "kasztelan": 8664,
      "trzeciego": 8665,
      "Kiejdan": 8666,
      "MAŁGORZATA": 8667,
      ".),": 8668,
      "Hor": 8669,
      "KS": 8670,
      "Klej": 8671,
      "Tobie": 8672,
      "dżu": 8673,
      "emoc": 8674,
      "grzecz": 8675,
      "ukoń": 8676,
      "niesz": 8677,
      "czkami": 8678,
      "liwość": 8679,
      "zarę": 8680,
      "zapyta": 8681,
      "zaklę": 8682,
      "zaprasza": 8683,
      "wile": 8684,
      "wiały": 8685,
      "widno": 8686,
      "ławy": 8687,
      "wypi": 8688,
      "wysił": 8689,
      "wysunął": 8690,
      "tyk": 8691,
      "wieży": 8692,
      "dzieła": 8693,
      "przecię": 8694,
      "odem": 8695,
      "odwoła": 8696,
      "morzu": 8697,
      "tum": 8698,
      "czając": 8699,
      "znamieni": 8700,
      "systemu": 8701,
      "Nazajutrz": 8702,
      "armaty": 8703,
      "jedwa": 8704,
      "powieki": 8705,
      "żoł": 8706,
      "oknem": 8707,
      "kondy": 8708,
      "serwa": 8709,
      "końmi": 8710,
      "grube": 8711,
      "wychowa": 8712,
      "oboz": 8713,
      "grzesz": 8714,
      "obecność": 8715,
      "komisa": 8716,
      "szwedzki": 8717,
      "kniaź": 8718,
      "klucz": 8719,
      "Piotra": 8720,
      "wesele": 8721,
      "drobne": 8722,
      "przedsięwzię": 8723,
      "łóżku": 8724,
      "Patrzcie": 8725,
      "bitwę": 8726,
      "sąsiadów": 8727,
      "Głos": 8728,
      "Chcesz": 8729,
      "sportu": 8730,
      "Widocznie": 8731,
      "Centrum": 8732,
      "Małgorza": 8733,
      "300": 8734,
      "EN": 8735,
      "Oby": 8736,
      "Prę": 8737,
      "Rzu": 8738,
      "dnąć": 8739,
      "edu": 8740,
      "iły": 8741,
      "imienia": 8742,
      "kowania": 8743,
      "oświet": 8744,
      "ofer": 8745,
      "spła": 8746,
      "uko": 8747,
      "umożli": 8748,
      "usłyszawszy": 8749,
      "zbó": 8750,
      "rzan": 8751,
      "rzona": 8752,
      "szliśmy": 8753,
      "dztwa": 8754,
      "litość": 8755,
      "zatrzymać": 8756,
      "zabrz": 8757,
      "kano": 8758,
      "wynala": 8759,
      "dachu": 8760,
      "czymy": 8761,
      "ryt": 8762,
      "przesła": 8763,
      "przykro": 8764,
      "przyjeżdża": 8765,
      "przynieść": 8766,
      "pistole": 8767,
      "deszczu": 8768,
      "cają": 8769,
      "owiska": 8770,
      "Nau": 8771,
      "sułta": 8772,
      "ordyna": 8773,
      "Widzi": 8774,
      "mędr": 8775,
      "Przede": 8776,
      "wsparł": 8777,
      "Baśka": 8778,
      "pozwól": 8779,
      "zdobył": 8780,
      "towarzysz": 8781,
      "kowane": 8782,
      "zespół": 8783,
      "siadłszy": 8784,
      "dziedziniec": 8785,
      "Wielka": 8786,
      "prawdziwy": 8787,
      "prawdziwe": 8788,
      "Odysej": 8789,
      "zmem": 8790,
      "dojść": 8791,
      "mianowicie": 8792,
      "znajdziesz": 8793,
      "oddziału": 8794,
      "zwróciła": 8795,
      "zboża": 8796,
      "brzuch": 8797,
      "alkoholu": 8798,
      "struktury": 8799,
      "stopniowo": 8800,
      "Obecnie": 8801,
      "człeka": 8802,
      "dowcip": 8803,
      "Naturalnie": 8804,
      "Faraon": 8805,
      "Hla": 8806,
      "Krzecz": 8807,
      "Pła": 8808,
      "Sobie": 8809,
      "Zjedno": 8810,
      "epi": 8811,
      "pt": 8812,
      "przę": 8813,
      "sh": 8814,
      "trę": 8815,
      "tnika": 8816,
      "zj": 8817,
      "łowo": 8818,
      "źró": 8819,
      "popę": 8820,
      "pomiesza": 8821,
      "porządek": 8822,
      "nisz": 8823,
      "zarząd": 8824,
      "kopy": 8825,
      "cich": 8826,
      "wite": 8827,
      "tecznie": 8828,
      "wydała": 8829,
      "wystąpił": 8830,
      "łosko": 8831,
      "wieniu": 8832,
      "nota": 8833,
      "czynią": 8834,
      "magi": 8835,
      "masy": 8836,
      "magna": 8837,
      "obe": 8838,
      "gale": 8839,
      "łuje": 8840,
      "zewnętrz": 8841,
      "spoglądać": 8842,
      "szara": 8843,
      "intele": 8844,
      "indywidu": 8845,
      "fia": 8846,
      "jegomości": 8847,
      "czącego": 8848,
      "tempe": 8849,
      "nadszedł": 8850,
      "stępow": 8851,
      "stroju": 8852,
      "padał": 8853,
      "Kocha": 8854,
      "Ros": 8855,
      "świeże": 8856,
      "trwać": 8857,
      "gardła": 8858,
      "wionych": 8859,
      "cyjną": 8860,
      "obiet": 8861,
      "otoczony": 8862,
      "towarzyszów": 8863,
      "piął": 8864,
      "największe": 8865,
      "kwit": 8866,
      "wdzięczność": 8867,
      "szeregu": 8868,
      "znajomych": 8869,
      "książkę": 8870,
      "Krzyżacy": 8871,
      "przywiózł": 8872,
      "gospodarz": 8873,
      "dyrektora": 8874,
      "kwietnia": 8875,
      "odejść": 8876,
      "konfedera": 8877,
      "profesor": 8878,
      "piętnaście": 8879,
      "mechani": 8880,
      "opodal": 8881,
      "Agen": 8882,
      "Mzi": 8883,
      "Ode": 8884,
      "Suda": 8885,
      "Zbro": 8886,
      "knęła": 8887,
      "psi": 8888,
      "towy": 8889,
      "wto": 8890,
      "zdej": 8891,
      "Środ": 8892,
      "niechy": 8893,
      "niejeden": 8894,
      "niezwykł": 8895,
      "posi": 8896,
      "lica": 8897,
      "zapowiedział": 8898,
      "zająć": 8899,
      "kolan": 8900,
      "lewi": 8901,
      "wiu": 8902,
      "tania": 8903,
      "walu": 8904,
      "wymia": 8905,
      "wypę": 8906,
      "wytrzyma": 8907,
      "refe": 8908,
      "dyj": 8909,
      "czech": 8910,
      "mus": 8911,
      "tując": 8912,
      "rozer": 8913,
      "mięso": 8914,
      "trzysta": 8915,
      "równowa": 8916,
      "Chwała": 8917,
      "traf": 8918,
      "zdjęcia": 8919,
      "trosk": 8920,
      "długa": 8921,
      "padli": 8922,
      "ciągną": 8923,
      "towany": 8924,
      "musiało": 8925,
      "ruszyły": 8926,
      "postawił": 8927,
      "ciężki": 8928,
      "wracając": 8929,
      "młodym": 8930,
      "opieką": 8931,
      "niesienia": 8932,
      "zasady": 8933,
      "potrzebował": 8934,
      "potężne": 8935,
      "2000": 8936,
      "ukryć": 8937,
      "pracownicy": 8938,
      "niezbę": 8939,
      "amfi": 8940,
      "doświadczenia": 8941,
      "przestrzeń": 8942,
      "cjusz": 8943,
      "kawałek": 8944,
      "posiadał": 8945,
      "anali": 8946,
      "piwnicy": 8947,
      "Zygfryd": 8948,
      "Anzelm": 8949,
      "Związku": 8950,
      "Szlachta": 8951,
      "Mzimu": 8952,
      ".).": 8953,
      "Ab": 8954,
      "Het": 8955,
      "ZY": 8956,
      "lało": 8957,
      "mknął": 8958,
      "odzie": 8959,
      "snych": 8960,
      "uła": 8961,
      "złą": 8962,
      "śmiały": 8963,
      "nawy": 8964,
      "szemu": 8965,
      "posy": 8966,
      "radziwił": 8967,
      "wat": 8968,
      "wysi": 8969,
      "lane": 8970,
      "rynek": 8971,
      "przekra": 8972,
      "przeszła": 8973,
      "cele": 8974,
      "starzy": 8975,
      "staru": 8976,
      "bawił": 8977,
      "bieży": 8978,
      "sukie": 8979,
      "stycznych": 8980,
      "bezpośred": 8981,
      "nionego": 8982,
      "płacił": 8983,
      "giej": 8984,
      "królu": 8985,
      "face": 8986,
      "warko": 8987,
      "młodzian": 8988,
      "Sama": 8989,
      "ustawa": 8990,
      "karty": 8991,
      "święci": 8992,
      "dowanych": 8993,
      "przyjacielem": 8994,
      "brzegiem": 8995,
      "diab": 8996,
      "szczone": 8997,
      "naukę": 8998,
      "królewskie": 8999,
      "ciekawość": 9000,
      "siostra": 9001,
      "hini": 9002,
      "zamknięte": 9003,
      "ńskiemu": 9004,
      "wnętrza": 9005,
      "zimno": 9006,
      "Danusia": 9007,
      "stępować": 9008,
      "Króle": 9009,
      "warunków": 9010,
      "zacny": 9011,
      "zdrajcy": 9012,
      "Czarnieckiego": 9013,
      "badania": 9014,
      "miłosierny": 9015,
      "błogosławie": 9016,
      "zabrakło": 9017,
      "komnacie": 9018,
      "problemy": 9019,
      "rozmaite": 9020,
      "czeladź": 9021,
      "Drugi": 9022,
      "Marian": 9023,
      "serdecznie": 9024,
      "awantu": 9025,
      "Łodzi": 9026,
      "starannie": 9027,
      "Witten": 9028,
      "Am": 9029,
      "Ina": 9030,
      "TY": 9031,
      "Wprawdzie": 9032,
      "iło": 9033,
      "inicja": 9034,
      "kowego": 9035,
      "nowski": 9036,
      "oprac": 9037,
      "otwier": 9038,
      "pka": 9039,
      "ut": 9040,
      "ubiegły": 9041,
      "popra": 9042,
      "owskiemu": 9043,
      "liły": 9044,
      "zadu": 9045,
      "zakład": 9046,
      "zapal": 9047,
      "cisnął": 9048,
      "dodać": 9049,
      "dorad": 9050,
      "żer": 9051,
      "waka": 9052,
      "wyło": 9053,
      "wystą": 9054,
      "wykrę": 9055,
      "wytrzymać": 9056,
      "cyfi": 9057,
      "wentu": 9058,
      "wezwał": 9059,
      "cokolwiek": 9060,
      "skór": 9061,
      "mel": 9062,
      "Zakonu": 9063,
      "prawą": 9064,
      "słe": 9065,
      "słem": 9066,
      "pierał": 9067,
      "giego": 9068,
      "konfi": 9069,
      "koncep": 9070,
      "dawca": 9071,
      "preto": 9072,
      "samochod": 9073,
      "starszych": 9074,
      "przodu": 9075,
      "powodów": 9076,
      "trafić": 9077,
      "brzegi": 9078,
      "Prawie": 9079,
      "grzech": 9080,
      "ostatnia": 9081,
      "słuchali": 9082,
      "magazy": 9083,
      "rozpacz": 9084,
      "gorsze": 9085,
      "historię": 9086,
      "pilno": 9087,
      "ogniska": 9088,
      "Horesz": 9089,
      "muzyki": 9090,
      "funkcjon": 9091,
      "tygodnia": 9092,
      "produkcji": 9093,
      "Gaze": 9094,
      "ńczyk": 9095,
      "ojczyznę": 9096,
      "księżny": 9097,
      "Pamiętam": 9098,
      "barona": 9099,
      "owuje": 9100,
      "protest": 9101,
      "posłowie": 9102,
      "Myślałem": 9103,
      "mądrość": 9104,
      "rozporządzenia": 9105,
      "Mellech": 9106,
      "Powała": 9107,
      "Stąd": 9108,
      "ano": 9109,
      "fle": 9110,
      "gmin": 9111,
      "hie": 9112,
      "iz": 9113,
      "snej": 9114,
      "ukazała": 9115,
      "ujaw": 9116,
      "zmo": 9117,
      "str": 9118,
      "owce": 9119,
      "owcy": 9120,
      "listu": 9121,
      "zamę": 9122,
      "sięga": 9123,
      "dostała": 9124,
      "dopuszcza": 9125,
      "żeście": 9126,
      "łok": 9127,
      "łożu": 9128,
      "rela": 9129,
      "kiemu": 9130,
      "odnaj": 9131,
      "ciepło": 9132,
      "obrzy": 9133,
      "basz": 9134,
      "pisz": 9135,
      "rozkazał": 9136,
      "wiara": 9137,
      "duszu": 9138,
      "promieni": 9139,
      "rzekłem": 9140,
      "wzruszył": 9141,
      "sądził": 9142,
      "całować": 9143,
      "riusz": 9144,
      "pełnym": 9145,
      "Przepraszam": 9146,
      "świecą": 9147,
      "diów": 9148,
      "ważał": 9149,
      "poczęto": 9150,
      "Pene": 9151,
      "195": 9152,
      "ramion": 9153,
      "chciałby": 9154,
      "Kmicicowi": 9155,
      "lekka": 9156,
      "augu": 9157,
      "towarzysze": 9158,
      "osobę": 9159,
      "jedyna": 9160,
      "Dobra": 9161,
      "publicznej": 9162,
      "nauka": 9163,
      "wszelką": 9164,
      "uważam": 9165,
      "Syna": 9166,
      "obrazić": 9167,
      "adres": 9168,
      "Zosi": 9169,
      "lekarza": 9170,
      "Prezes": 9171,
      "jakichś": 9172,
      "boleści": 9173,
      "punkt": 9174,
      "Łęcki": 9175,
      "elektry": 9176,
      "wyglądała": 9177,
      "jeziora": 9178,
      "Kowalski": 9179,
      "odetchnął": 9180,
      "absolu": 9181,
      "Równie": 9182,
      "Wrzeszcz": 9183,
      "Cu": 9184,
      "Knia": 9185,
      "Tej": 9186,
      "mły": 9187,
      "mową": 9188,
      "uwierzy": 9189,
      "wstęp": 9190,
      "zrobię": 9191,
      "Śmier": 9192,
      "nieo": 9193,
      "nieśmiertel": 9194,
      "niewidzial": 9195,
      "nada": 9196,
      "pokła": 9197,
      "owne": 9198,
      "zaścian": 9199,
      "wisz": 9200,
      "jazdu": 9201,
      "torem": 9202,
      "noga": 9203,
      "nosem": 9204,
      "czyłem": 9205,
      "lasów": 9206,
      "malnie": 9207,
      "rewolu": 9208,
      "odgłos": 9209,
      "cesar": 9210,
      "przyto": 9211,
      "przywód": 9212,
      "sak": 9213,
      "rozkosz": 9214,
      "dep": 9215,
      "podlega": 9216,
      "ałym": 9217,
      "głód": 9218,
      "propo": 9219,
      "byłeś": 9220,
      "słowie": 9221,
      "Chi": 9222,
      "słab": 9223,
      "drog": 9224,
      "ktorów": 9225,
      "grob": 9226,
      "dzając": 9227,
      "dawny": 9228,
      "dawnego": 9229,
      "dałem": 9230,
      "słody": 9231,
      "trum": 9232,
      "trupy": 9233,
      "kiedykolwiek": 9234,
      "panienka": 9235,
      "uczynię": 9236,
      "mocny": 9237,
      "starca": 9238,
      "święte": 9239,
      "mieszkać": 9240,
      "czarną": 9241,
      "dzieciom": 9242,
      "Bir": 9243,
      "potęgę": 9244,
      "podatku": 9245,
      "towarzysza": 9246,
      "landii": 9247,
      "uderzyć": 9248,
      "Janusza": 9249,
      "smutek": 9250,
      "wiedziałem": 9251,
      "zamiesz": 9252,
      "białego": 9253,
      "wszelki": 9254,
      "Senatu": 9255,
      "ramionach": 9256,
      "spodziewać": 9257,
      "groźne": 9258,
      "pilnu": 9259,
      "stępował": 9260,
      "pułkownika": 9261,
      "Ojca": 9262,
      "najlepszy": 9263,
      "rozpocznie": 9264,
      "Ostat": 9265,
      "spostrzegłszy": 9266,
      "czapki": 9267,
      "miłuje": 9268,
      "Kalego": 9269,
      "nomarcha": 9270,
      "przysiągł": 9271,
      "przyjaźń": 9272,
      "Inaczej": 9273,
      "kowym": 9274,
      "wskó": 9275,
      "wprowadza": 9276,
      "zrozu": 9277,
      "zwąt": 9278,
      "ńcach": 9279,
      "nień": 9280,
      "niezwykle": 9281,
      "nakła": 9282,
      "powrócił": 9283,
      "poziom": 9284,
      "zama": 9285,
      "zazna": 9286,
      "kopyta": 9287,
      "lecą": 9288,
      "żebra": 9289,
      "palec": 9290,
      "wyrwał": 9291,
      "wole": 9292,
      "dziem": 9293,
      "dziewią": 9294,
      "przesa": 9295,
      "przyłą": 9296,
      "szeń": 9297,
      "bawić": 9298,
      "cam": 9299,
      "sposoby": 9300,
      "podsu": 9301,
      "gich": 9302,
      "skrze": 9303,
      "skre": 9304,
      "sień": 9305,
      "promienie": 9306,
      "jedli": 9307,
      "Zapewne": 9308,
      "kłe": 9309,
      "buntu": 9310,
      "dobrowo": 9311,
      "ziemie": 9312,
      "traw": 9313,
      "Widząc": 9314,
      "wojną": 9315,
      "rządy": 9316,
      "Kapła": 9317,
      "Rawli": 9318,
      "złotą": 9319,
      "Coraz": 9320,
      "Moska": 9321,
      "Miała": 9322,
      "trudem": 9323,
      "płyną": 9324,
      "powiadała": 9325,
      "wschód": 9326,
      "kilkaset": 9327,
      "pozwal": 9328,
      "dowało": 9329,
      "porwali": 9330,
      "człowiekowi": 9331,
      "Dagon": 9332,
      "Możesz": 9333,
      "jedynym": 9334,
      "pójdą": 9335,
      "sztuk": 9336,
      "kazano": 9337,
      "korzyst": 9338,
      "Kisie": 9339,
      "rozległy": 9340,
      "rzuciwszy": 9341,
      "stosuje": 9342,
      "czwarty": 9343,
      "czwartek": 9344,
      "zbrojnych": 9345,
      "charaktery": 9346,
      "Pamięta": 9347,
      "przeszłości": 9348,
      "diego": 9349,
      "podłogę": 9350,
      "cofać": 9351,
      "komendant": 9352,
      "kontakt": 9353,
      "orygina": 9354,
      "Gospodar": 9355,
      "angaż": 9356,
      "FOR": 9357,
      "Nor": 9358,
      "Powo": 9359,
      "Rej": 9360,
      "Wraca": 9361,
      "kową": 9362,
      "mni": 9363,
      "opowiedział": 9364,
      "oczom": 9365,
      "rni": 9366,
      "uczył": 9367,
      "uznał": 9368,
      "szpie": 9369,
      "popatrzył": 9370,
      "ałą": 9371,
      "zakłopo": 9372,
      "zarządza": 9373,
      "kota": 9374,
      "tes": 9375,
      "wybrać": 9376,
      "dadzą": 9377,
      "rezo": 9378,
      "odwo": 9379,
      "cieszy": 9380,
      "kupie": 9381,
      "stami": 9382,
      "mieliśmy": 9383,
      "przybyli": 9384,
      "przyjechali": 9385,
      "owani": 9386,
      "niali": 9387,
      "gaz": 9388,
      "rozry": 9389,
      "rozdraż": 9390,
      "bieżą": 9391,
      "głosi": 9392,
      "władz": 9393,
      "słup": 9394,
      "bramie": 9395,
      "żonej": 9396,
      "Patro": 9397,
      "graf": 9398,
      "konstytu": 9399,
      "książek": 9400,
      "Komen": 9401,
      "szedłem": 9402,
      "Panowie": 9403,
      "Wieczo": 9404,
      "komtur": 9405,
      "karie": 9406,
      "zmieniła": 9407,
      "krześle": 9408,
      "000": 9409,
      "hoł": 9410,
      "włos": 9411,
      "drugich": 9412,
      "potrzebie": 9413,
      "pisma": 9414,
      "spojrzała": 9415,
      "twierdzą": 9416,
      "grzechy": 9417,
      "skrzydeł": 9418,
      "określe": 9419,
      "Najpierw": 9420,
      "uczty": 9421,
      "liczby": 9422,
      "patrzał": 9423,
      "padają": 9424,
      "wiązał": 9425,
      "jedziesz": 9426,
      "Niemczech": 9427,
      "Gdzież": 9428,
      "siostry": 9429,
      "Ryszar": 9430,
      "szwedzkiego": 9431,
      "spodziewa": 9432,
      "Geist": 9433,
      "ambasa": 9434,
      "piechotą": 9435,
      "nieszczęścia": 9436,
      "latywały": 9437,
      "próbować": 9438,
      "władca": 9439,
      "prośbę": 9440,
      "realizacji": 9441,
      "odległości": 9442,
      "Pamiętaj": 9443,
      "Ziemi": 9444,
      "sprzęt": 9445,
      "wspomniał": 9446,
      "piorun": 9447,
      "pogrzeb": 9448,
      "niecierpliwie": 9449,
      "Florenty": 9450,
      "potwor": 9451,
      "Podbipięta": 9452,
      "Akade": 9453,
      "BA": 9454,
      "Bał": 9455,
      "KI": 9456,
      "MI": 9457,
      "Nowy": 9458,
      "Około": 9459,
      "Stry": 9460,
      "Wzią": 9461,
      "spadła": 9462,
      "żny": 9463,
      "żnej": 9464,
      "namię": 9465,
      "czkiem": 9466,
      "pośród": 9467,
      "pomyśleć": 9468,
      "pobladł": 9469,
      "libe": 9470,
      "gorzał": 9471,
      "zagar": 9472,
      "zamyśle": 9473,
      "zapytać": 9474,
      "doktór": 9475,
      "kate": 9476,
      "wyrazem": 9477,
      "łodzi": 9478,
      "przeważnie": 9479,
      "ciepła": 9480,
      "mona": 9481,
      "ceni": 9482,
      "ścisnął": 9483,
      "szefa": 9484,
      "lutego": 9485,
      "inteli": 9486,
      "proro": 9487,
      "syl": 9488,
      "fio": 9489,
      "cud": 9490,
      "nur": 9491,
      "nuż": 9492,
      "rowanie": 9493,
      "Maj": 9494,
      "owoc": 9495,
      "wąsy": 9496,
      "robili": 9497,
      "złości": 9498,
      "wart": 9499,
      "świeci": 9500,
      "nikach": 9501,
      "szkody": 9502,
      "ścianą": 9503,
[...]
